#include "magic_wand_model_data.h"

// We need to keep the data array aligned on some architectures.
#ifdef __has_attribute
#define HAVE_ATTRIBUTE(x) __has_attribute(x)
#else
#define HAVE_ATTRIBUTE(x) 0
#endif
#if HAVE_ATTRIBUTE(aligned) || (defined(__GNUC__) && !defined(__clang__))
#define DATA_ALIGN_ATTRIBUTE __attribute__((aligned(4)))
#else
#define DATA_ALIGN_ATTRIBUTE
#endif

const unsigned char g_magic_wand_model_data[] DATA_ALIGN_ATTRIBUTE = {
0x1c, 0x00, 0x00, 0x00, 0x54, 0x46, 0x4c, 0x33, 0x14, 0x00, 0x20, 0x00,
  0x04, 0x00, 0x08, 0x00, 0x0c, 0x00, 0x10, 0x00, 0x14, 0x00, 0x00, 0x00,
  0x18, 0x00, 0x1c, 0x00, 0x14, 0x00, 0x00, 0x00, 0x03, 0x00, 0x00, 0x00,
  0x18, 0x00, 0x00, 0x00, 0x2c, 0x00, 0x00, 0x00, 0x58, 0x01, 0x00, 0x00,
  0x2c, 0x00, 0x00, 0x00, 0x00, 0x01, 0x00, 0x00, 0x78, 0x00, 0x00, 0x00,
  0x05, 0x00, 0x00, 0x00, 0x94, 0x07, 0x00, 0x00, 0xb0, 0x06, 0x00, 0x00,
  0x4c, 0x04, 0x00, 0x00, 0x88, 0x03, 0x00, 0x00, 0x2c, 0x02, 0x00, 0x00,
  0x01, 0x00, 0x00, 0x00, 0x50, 0x01, 0x00, 0x00, 0x14, 0x00, 0x00, 0x00,
  0x9c, 0x32, 0x00, 0x00, 0x98, 0x32, 0x00, 0x00, 0xb4, 0x31, 0x00, 0x00,
  0x28, 0x31, 0x00, 0x00, 0xa4, 0x30, 0x00, 0x00, 0x44, 0x30, 0x00, 0x00,
  0xd8, 0x2f, 0x00, 0x00, 0x88, 0x13, 0x00, 0x00, 0x34, 0x12, 0x00, 0x00,
  0x58, 0x10, 0x00, 0x00, 0xfc, 0x07, 0x00, 0x00, 0x70, 0x32, 0x00, 0x00,
  0x6c, 0x32, 0x00, 0x00, 0x68, 0x32, 0x00, 0x00, 0x64, 0x32, 0x00, 0x00,
  0x60, 0x32, 0x00, 0x00, 0x5c, 0x32, 0x00, 0x00, 0x58, 0x32, 0x00, 0x00,
  0x54, 0x32, 0x00, 0x00, 0xbc, 0x00, 0x00, 0x00, 0x01, 0x00, 0x00, 0x00,
  0x10, 0x00, 0x00, 0x00, 0x00, 0x00, 0x0a, 0x00, 0x10, 0x00, 0x0c, 0x00,
  0x08, 0x00, 0x04, 0x00, 0x0a, 0x00, 0x00, 0x00, 0x0c, 0x00, 0x00, 0x00,
  0x1c, 0x00, 0x00, 0x00, 0x20, 0x00, 0x00, 0x00, 0x0f, 0x00, 0x00, 0x00,
  0x73, 0x65, 0x72, 0x76, 0x69, 0x6e, 0x67, 0x5f, 0x64, 0x65, 0x66, 0x61,
  0x75, 0x6c, 0x74, 0x00, 0x01, 0x00, 0x00, 0x00, 0x14, 0x00, 0x00, 0x00,
  0x01, 0x00, 0x00, 0x00, 0x24, 0x00, 0x00, 0x00, 0x08, 0x00, 0x0c, 0x00,
  0x08, 0x00, 0x04, 0x00, 0x08, 0x00, 0x00, 0x00, 0x11, 0x00, 0x00, 0x00,
  0x04, 0x00, 0x00, 0x00, 0x07, 0x00, 0x00, 0x00, 0x64, 0x65, 0x6e, 0x73,
  0x65, 0x5f, 0x31, 0x00, 0x02, 0xcf, 0xff, 0xff, 0x04, 0x00, 0x00, 0x00,
  0x0c, 0x00, 0x00, 0x00, 0x63, 0x6f, 0x6e, 0x76, 0x32, 0x64, 0x5f, 0x69,
  0x6e, 0x70, 0x75, 0x74, 0x00, 0x00, 0x00, 0x00, 0x01, 0x00, 0x00, 0x00,
  0x0c, 0x00, 0x00, 0x00, 0x08, 0x00, 0x0c, 0x00, 0x04, 0x00, 0x08, 0x00,
  0x08, 0x00, 0x00, 0x00, 0x08, 0x00, 0x00, 0x00, 0x13, 0x00, 0x00, 0x00,
  0x13, 0x00, 0x00, 0x00, 0x6d, 0x69, 0x6e, 0x5f, 0x72, 0x75, 0x6e, 0x74,
  0x69, 0x6d, 0x65, 0x5f, 0x76, 0x65, 0x72, 0x73, 0x69, 0x6f, 0x6e, 0x00,
  0x52, 0xcf, 0xff, 0xff, 0x04, 0x00, 0x00, 0x00, 0x10, 0x00, 0x00, 0x00,
  0x31, 0x2e, 0x35, 0x2e, 0x30, 0x00, 0x00, 0x00, 0x00, 0x00, 0x00, 0x00,
  0x00, 0x00, 0x00, 0x00, 0x0f, 0x00, 0x00, 0x00, 0x4d, 0x4c, 0x49, 0x52,
  0x20, 0x43, 0x6f, 0x6e, 0x76, 0x65, 0x72, 0x74, 0x65, 0x64, 0x2e, 0x00,
  0x00, 0x00, 0x0e, 0x00, 0x18, 0x00, 0x04, 0x00, 0x08, 0x00, 0x0c, 0x00,
  0x10, 0x00, 0x14, 0x00, 0x0e, 0x00, 0x00, 0x00, 0x14, 0x00, 0x00, 0x00,
  0x5c, 0x00, 0x00, 0x00, 0x60, 0x00, 0x00, 0x00, 0x64, 0x00, 0x00, 0x00,
  0x84, 0x00, 0x00, 0x00, 0x12, 0x00, 0x00, 0x00, 0xcc, 0x30, 0x00, 0x00,
  0x80, 0x30, 0x00, 0x00, 0x14, 0x30, 0x00, 0x00, 0x90, 0x2f, 0x00, 0x00,
  0x10, 0x2f, 0x00, 0x00, 0x9c, 0x2e, 0x00, 0x00, 0x34, 0x2e, 0x00, 0x00,
  0xe0, 0x11, 0x00, 0x00, 0x84, 0x10, 0x00, 0x00, 0xa8, 0x0e, 0x00, 0x00,
  0xf8, 0x05, 0x00, 0x00, 0x14, 0x05, 0x00, 0x00, 0xf8, 0x03, 0x00, 0x00,
  0x4c, 0x03, 0x00, 0x00, 0xa8, 0x02, 0x00, 0x00, 0xe4, 0x01, 0x00, 0x00,
  0x20, 0x01, 0x00, 0x00, 0x84, 0x00, 0x00, 0x00, 0x01, 0x00, 0x00, 0x00,
  0x00, 0x00, 0x00, 0x00, 0x01, 0x00, 0x00, 0x00, 0x11, 0x00, 0x00, 0x00,
  0x08, 0x00, 0x00, 0x00, 0x60, 0x05, 0x00, 0x00, 0x80, 0x04, 0x00, 0x00,
  0x88, 0x03, 0x00, 0x00, 0xcc, 0x02, 0x00, 0x00, 0x40, 0x02, 0x00, 0x00,
  0x60, 0x01, 0x00, 0x00, 0xb8, 0x00, 0x00, 0x00, 0x10, 0x00, 0x00, 0x00,
  0x04, 0x00, 0x00, 0x00, 0x6d, 0x61, 0x69, 0x6e, 0x00, 0x00, 0x00, 0x00,
  0x6a, 0xff, 0xff, 0xff, 0x00, 0x00, 0x00, 0x09, 0x04, 0x00, 0x00, 0x00,
  0x1c, 0x00, 0x00, 0x00, 0x10, 0x00, 0x00, 0x00, 0x04, 0x00, 0x00, 0x00,
  0x4e, 0xd0, 0xff, 0xff, 0x00, 0x00, 0x80, 0x3f, 0x01, 0x00, 0x00, 0x00,
  0x11, 0x00, 0x00, 0x00, 0x01, 0x00, 0x00, 0x00, 0x10, 0x00, 0x00, 0x00,
  0xb4, 0xfa, 0xff, 0xff, 0x19, 0x00, 0x00, 0x00, 0x00, 0x00, 0x00, 0x19,
  0x01, 0x00, 0x00, 0x00, 0x10, 0xd0, 0xff, 0xff, 0x14, 0x00, 0x00, 0x00,
  0x12, 0x00, 0x00, 0x00, 0x18, 0x00, 0x00, 0x00, 0x40, 0x00, 0x00, 0x00,
  0x30, 0x00, 0x00, 0x00, 0x02, 0x00, 0x00, 0x00, 0x01, 0x00, 0x00, 0x00,
  0x04, 0x00, 0x00, 0x00, 0x19, 0x00, 0x00, 0x00, 0x53, 0x74, 0x61, 0x74,
  0x65, 0x66, 0x75, 0x6c, 0x50, 0x61, 0x72, 0x74, 0x69, 0x74, 0x69, 0x6f,
  0x6e, 0x65, 0x64, 0x43, 0x61, 0x6c, 0x6c, 0x3a, 0x30, 0x00, 0x00, 0x00,
  0x02, 0x00, 0x00, 0x00, 0xff, 0xff, 0xff, 0xff, 0x04, 0x00, 0x00, 0x00,
  0xd0, 0xd0, 0xff, 0xff, 0x00, 0x00, 0x0e, 0x00, 0x18, 0x00, 0x08, 0x00,
  0x0c, 0x00, 0x10, 0x00, 0x07, 0x00, 0x14, 0x00, 0x0e, 0x00, 0x00, 0x00,
  0x00, 0x00, 0x00, 0x08, 0x03, 0x00, 0x00, 0x00, 0x18, 0x00, 0x00, 0x00,
  0x0c, 0x00, 0x00, 0x00, 0x04, 0x00, 0x00, 0x00, 0x10, 0xd0, 0xff, 0xff,
  0x01, 0x00, 0x00, 0x00, 0x10, 0x00, 0x00, 0x00, 0x03, 0x00, 0x00, 0x00,
  0x0f, 0x00, 0x00, 0x00, 0x07, 0x00, 0x00, 0x00, 0x01, 0x00, 0x00, 0x00,
  0xa8, 0xd0, 0xff, 0xff, 0x14, 0x00, 0x00, 0x00, 0x11, 0x00, 0x00, 0x00,
  0x18, 0x00, 0x00, 0x00, 0x5c, 0x00, 0x00, 0x00, 0x4c, 0x00, 0x00, 0x00,
  0x02, 0x00, 0x00, 0x00, 0x01, 0x00, 0x00, 0x00, 0x04, 0x00, 0x00, 0x00,
  0x34, 0x00, 0x00, 0x00, 0x73, 0x65, 0x71, 0x75, 0x65, 0x6e, 0x74, 0x69,
  0x61, 0x6c, 0x2f, 0x64, 0x65, 0x6e, 0x73, 0x65, 0x5f, 0x31, 0x2f, 0x4d,
  0x61, 0x74, 0x4d, 0x75, 0x6c, 0x3b, 0x73, 0x65, 0x71, 0x75, 0x65, 0x6e,
  0x74, 0x69, 0x61, 0x6c, 0x2f, 0x64, 0x65, 0x6e, 0x73, 0x65, 0x5f, 0x31,
  0x2f, 0x42, 0x69, 0x61, 0x73, 0x41, 0x64, 0x64, 0x00, 0x00, 0x00, 0x00,
  0x02, 0x00, 0x00, 0x00, 0xff, 0xff, 0xff, 0xff, 0x04, 0x00, 0x00, 0x00,
  0x98, 0xd0, 0xff, 0xff, 0xfe, 0xfc, 0xff, 0xff, 0x00, 0x00, 0x00, 0x08,
  0x03, 0x00, 0x00, 0x00, 0x24, 0x00, 0x00, 0x00, 0x18, 0x00, 0x00, 0x00,
  0x0c, 0x00, 0x00, 0x00, 0x00, 0x00, 0x06, 0x00, 0x08, 0x00, 0x07, 0x00,
  0x06, 0x00, 0x00, 0x00, 0x00, 0x00, 0x00, 0x01, 0x01, 0x00, 0x00, 0x00,
  0x0f, 0x00, 0x00, 0x00, 0x03, 0x00, 0x00, 0x00, 0x0e, 0x00, 0x00, 0x00,
  0x06, 0x00, 0x00, 0x00, 0x02, 0x00, 0x00, 0x00, 0x0c, 0xfc, 0xff, 0xff,
  0x09, 0x00, 0x00, 0x00, 0x00, 0x00, 0x00, 0x09, 0x01, 0x00, 0x00, 0x00,
  0x68, 0xd1, 0xff, 0xff, 0x14, 0x00, 0x00, 0x00, 0x10, 0x00, 0x00, 0x00,
  0x18, 0x00, 0x00, 0x00, 0x6c, 0x00, 0x00, 0x00, 0x5c, 0x00, 0x00, 0x00,
  0x02, 0x00, 0x00, 0x00, 0x01, 0x00, 0x00, 0x00, 0x10, 0x00, 0x00, 0x00,
  0x46, 0x00, 0x00, 0x00, 0x73, 0x65, 0x71, 0x75, 0x65, 0x6e, 0x74, 0x69,
  0x61, 0x6c, 0x2f, 0x64, 0x65, 0x6e, 0x73, 0x65, 0x2f, 0x4d, 0x61, 0x74,
  0x4d, 0x75, 0x6c, 0x3b, 0x73, 0x65, 0x71, 0x75, 0x65, 0x6e, 0x74, 0x69,
  0x61, 0x6c, 0x2f, 0x64, 0x65, 0x6e, 0x73, 0x65, 0x2f, 0x52, 0x65, 0x6c,
  0x75, 0x3b, 0x73, 0x65, 0x71, 0x75, 0x65, 0x6e, 0x74, 0x69, 0x61, 0x6c,
  0x2f, 0x64, 0x65, 0x6e, 0x73, 0x65, 0x2f, 0x42, 0x69, 0x61, 0x73, 0x41,
  0x64, 0x64, 0x00, 0x00, 0x02, 0x00, 0x00, 0x00, 0xff, 0xff, 0xff, 0xff,
  0x10, 0x00, 0x00, 0x00, 0x54, 0xd2, 0xff, 0xff, 0x00, 0x00, 0x0a, 0x00,
  0x10, 0x00, 0x04, 0x00, 0x08, 0x00, 0x0c, 0x00, 0x0a, 0x00, 0x00, 0x00,
  0x02, 0x00, 0x00, 0x00, 0x10, 0x00, 0x00, 0x00, 0x04, 0x00, 0x00, 0x00,
  0x01, 0x00, 0x00, 0x00, 0x0e, 0x00, 0x00, 0x00, 0x02, 0x00, 0x00, 0x00,
  0x0d, 0x00, 0x00, 0x00, 0x05, 0x00, 0x00, 0x00, 0xcc, 0xfc, 0xff, 0xff,
  0x16, 0x00, 0x00, 0x00, 0x00, 0x00, 0x00, 0x16, 0x01, 0x00, 0x00, 0x00,
  0x28, 0xd2, 0xff, 0xff, 0x14, 0x00, 0x00, 0x00, 0x0f, 0x00, 0x00, 0x00,
  0x18, 0x00, 0x00, 0x00, 0x40, 0x00, 0x00, 0x00, 0x30, 0x00, 0x00, 0x00,
  0x02, 0x00, 0x00, 0x00, 0x01, 0x00, 0x00, 0x00, 0x70, 0x00, 0x00, 0x00,
  0x1a, 0x00, 0x00, 0x00, 0x73, 0x65, 0x71, 0x75, 0x65, 0x6e, 0x74, 0x69,
  0x61, 0x6c, 0x2f, 0x66, 0x6c, 0x61, 0x74, 0x74, 0x65, 0x6e, 0x2f, 0x52,
  0x65, 0x73, 0x68, 0x61, 0x70, 0x65, 0x00, 0x00, 0x02, 0x00, 0x00, 0x00,
  0xff, 0xff, 0xff, 0xff, 0x70, 0x00, 0x00, 0x00, 0xfc, 0xd1, 0xff, 0xff,
  0x62, 0xfe, 0xff, 0xff, 0x00, 0x00, 0x00, 0x05, 0x01, 0x00, 0x00, 0x00,
  0x38, 0x00, 0x00, 0x00, 0x2c, 0x00, 0x00, 0x00, 0x14, 0x00, 0x00, 0x00,
  0x00, 0x00, 0x0e, 0x00, 0x14, 0x00, 0x00, 0x00, 0x10, 0x00, 0x0c, 0x00,
  0x08, 0x00, 0x04, 0x00, 0x0e, 0x00, 0x00, 0x00, 0x03, 0x00, 0x00, 0x00,
  0x01, 0x00, 0x00, 0x00, 0x03, 0x00, 0x00, 0x00, 0x01, 0x00, 0x00, 0x00,
  0x01, 0x00, 0x00, 0x00, 0x0d, 0x00, 0x00, 0x00, 0x01, 0x00, 0x00, 0x00,
  0x0c, 0x00, 0x00, 0x00, 0xc8, 0xd2, 0xff, 0xff, 0x14, 0x00, 0x00, 0x00,
  0x0e, 0x00, 0x00, 0x00, 0x20, 0x00, 0x00, 0x00, 0x58, 0x00, 0x00, 0x00,
  0x40, 0x00, 0x00, 0x00, 0x04, 0x00, 0x00, 0x00, 0x01, 0x00, 0x00, 0x00,
  0x07, 0x00, 0x00, 0x00, 0x01, 0x00, 0x00, 0x00, 0x10, 0x00, 0x00, 0x00,
  0x22, 0x00, 0x00, 0x00, 0x73, 0x65, 0x71, 0x75, 0x65, 0x6e, 0x74, 0x69,
  0x61, 0x6c, 0x2f, 0x6d, 0x61, 0x78, 0x5f, 0x70, 0x6f, 0x6f, 0x6c, 0x69,
  0x6e, 0x67, 0x32, 0x64, 0x5f, 0x31, 0x2f, 0x4d, 0x61, 0x78, 0x50, 0x6f,
  0x6f, 0x6c, 0x00, 0x00, 0x04, 0x00, 0x00, 0x00, 0xff, 0xff, 0xff, 0xff,
  0x07, 0x00, 0x00, 0x00, 0x01, 0x00, 0x00, 0x00, 0x10, 0x00, 0x00, 0x00,
  0xb4, 0xd2, 0xff, 0xff, 0x3e, 0xfe, 0xff, 0xff, 0x00, 0x00, 0x00, 0x01,
  0x24, 0x00, 0x00, 0x00, 0x18, 0x00, 0x00, 0x00, 0x04, 0x00, 0x00, 0x00,
  0x30, 0xfe, 0xff, 0xff, 0x01, 0x00, 0x00, 0x00, 0x01, 0x00, 0x00, 0x00,
  0x00, 0x00, 0x00, 0x01, 0x01, 0x00, 0x00, 0x00, 0x0c, 0x00, 0x00, 0x00,
  0x03, 0x00, 0x00, 0x00, 0x0b, 0x00, 0x00, 0x00, 0x09, 0x00, 0x00, 0x00,
  0x03, 0x00, 0x00, 0x00, 0x70, 0xd3, 0xff, 0xff, 0x14, 0x00, 0x00, 0x00,
  0x0d, 0x00, 0x00, 0x00, 0x20, 0x00, 0x00, 0x00, 0x94, 0x00, 0x00, 0x00,
  0x7c, 0x00, 0x00, 0x00, 0x04, 0x00, 0x00, 0x00, 0x01, 0x00, 0x00, 0x00,
  0x15, 0x00, 0x00, 0x00, 0x01, 0x00, 0x00, 0x00, 0x10, 0x00, 0x00, 0x00,
  0x5d, 0x00, 0x00, 0x00, 0x73, 0x65, 0x71, 0x75, 0x65, 0x6e, 0x74, 0x69,
  0x61, 0x6c, 0x2f, 0x63, 0x6f, 0x6e, 0x76, 0x32, 0x64, 0x5f, 0x31, 0x2f,
  0x52, 0x65, 0x6c, 0x75, 0x3b, 0x73, 0x65, 0x71, 0x75, 0x65, 0x6e, 0x74,
  0x69, 0x61, 0x6c, 0x2f, 0x63, 0x6f, 0x6e, 0x76, 0x32, 0x64, 0x5f, 0x31,
  0x2f, 0x42, 0x69, 0x61, 0x73, 0x41, 0x64, 0x64, 0x3b, 0x73, 0x65, 0x71,
  0x75, 0x65, 0x6e, 0x74, 0x69, 0x61, 0x6c, 0x2f, 0x63, 0x6f, 0x6e, 0x76,
  0x32, 0x64, 0x5f, 0x31, 0x2f, 0x43, 0x6f, 0x6e, 0x76, 0x32, 0x44, 0x3b,
  0x63, 0x6f, 0x6e, 0x76, 0x32, 0x64, 0x5f, 0x31, 0x2f, 0x62, 0x69, 0x61,
  0x73, 0x00, 0x00, 0x00, 0x04, 0x00, 0x00, 0x00, 0xff, 0xff, 0xff, 0xff,
  0x15, 0x00, 0x00, 0x00, 0x01, 0x00, 0x00, 0x00, 0x10, 0x00, 0x00, 0x00,
  0x84, 0xd4, 0xff, 0xff, 0x00, 0x00, 0x0e, 0x00, 0x1a, 0x00, 0x08, 0x00,
  0x0c, 0x00, 0x10, 0x00, 0x07, 0x00, 0x14, 0x00, 0x0e, 0x00, 0x00, 0x00,
  0x00, 0x00, 0x00, 0x05, 0x01, 0x00, 0x00, 0x00, 0x3c, 0x00, 0x00, 0x00,
  0x30, 0x00, 0x00, 0x00, 0x14, 0x00, 0x00, 0x00, 0x00, 0x00, 0x0e, 0x00,
  0x18, 0x00, 0x17, 0x00, 0x10, 0x00, 0x0c, 0x00, 0x08, 0x00, 0x04, 0x00,
  0x0e, 0x00, 0x00, 0x00, 0x03, 0x00, 0x00, 0x00, 0x03, 0x00, 0x00, 0x00,
  0x03, 0x00, 0x00, 0x00, 0x03, 0x00, 0x00, 0x00, 0x00, 0x00, 0x00, 0x01,
  0x01, 0x00, 0x00, 0x00, 0x0b, 0x00, 0x00, 0x00, 0x01, 0x00, 0x00, 0x00,
  0x0a, 0x00, 0x00, 0x00, 0x2c, 0xff, 0xff, 0xff, 0x11, 0x00, 0x00, 0x00,
  0x00, 0x00, 0x00, 0x11, 0x01, 0x00, 0x00, 0x00, 0x88, 0xd4, 0xff, 0xff,
  0x14, 0x00, 0x00, 0x00, 0x0c, 0x00, 0x00, 0x00, 0x20, 0x00, 0x00, 0x00,
  0x58, 0x00, 0x00, 0x00, 0x40, 0x00, 0x00, 0x00, 0x04, 0x00, 0x00, 0x00,
  0x01, 0x00, 0x00, 0x00, 0x15, 0x00, 0x00, 0x00, 0x01, 0x00, 0x00, 0x00,
  0x08, 0x00, 0x00, 0x00, 0x20, 0x00, 0x00, 0x00, 0x73, 0x65, 0x71, 0x75,
  0x65, 0x6e, 0x74, 0x69, 0x61, 0x6c, 0x2f, 0x6d, 0x61, 0x78, 0x5f, 0x70,
  0x6f, 0x6f, 0x6c, 0x69, 0x6e, 0x67, 0x32, 0x64, 0x2f, 0x4d, 0x61, 0x78,
  0x50, 0x6f, 0x6f, 0x6c, 0x00, 0x00, 0x00, 0x00, 0x04, 0x00, 0x00, 0x00,
  0xff, 0xff, 0xff, 0xff, 0x15, 0x00, 0x00, 0x00, 0x01, 0x00, 0x00, 0x00,
  0x08, 0x00, 0x00, 0x00, 0x60, 0xd5, 0xff, 0xff, 0x00, 0x00, 0x0e, 0x00,
  0x14, 0x00, 0x00, 0x00, 0x08, 0x00, 0x0c, 0x00, 0x07, 0x00, 0x10, 0x00,
  0x0e, 0x00, 0x00, 0x00, 0x00, 0x00, 0x00, 0x01, 0x30, 0x00, 0x00, 0x00,
  0x24, 0x00, 0x00, 0x00, 0x10, 0x00, 0x00, 0x00, 0x0c, 0x00, 0x10, 0x00,
  0x00, 0x00, 0x04, 0x00, 0x08, 0x00, 0x0f, 0x00, 0x0c, 0x00, 0x00, 0x00,
  0x01, 0x00, 0x00, 0x00, 0x01, 0x00, 0x00, 0x00, 0x00, 0x00, 0x00, 0x01,
  0x01, 0x00, 0x00, 0x00, 0x0a, 0x00, 0x00, 0x00, 0x03, 0x00, 0x00, 0x00,
  0x00, 0x00, 0x00, 0x00, 0x08, 0x00, 0x00, 0x00, 0x04, 0x00, 0x00, 0x00,
  0x0c, 0x00, 0x10, 0x00, 0x0b, 0x00, 0x00, 0x00, 0x0c, 0x00, 0x04, 0x00,
  0x0c, 0x00, 0x00, 0x00, 0x03, 0x00, 0x00, 0x00, 0x00, 0x00, 0x00, 0x03,
  0x01, 0x00, 0x00, 0x00, 0x68, 0xd5, 0xff, 0xff, 0x14, 0x00, 0x00, 0x00,
  0x0b, 0x00, 0x00, 0x00, 0x20, 0x00, 0x00, 0x00, 0x8c, 0x00, 0x00, 0x00,
  0x74, 0x00, 0x00, 0x00, 0x04, 0x00, 0x00, 0x00, 0x01, 0x00, 0x00, 0x00,
  0x40, 0x00, 0x00, 0x00, 0x03, 0x00, 0x00, 0x00, 0x08, 0x00, 0x00, 0x00,
  0x55, 0x00, 0x00, 0x00, 0x73, 0x65, 0x71, 0x75, 0x65, 0x6e, 0x74, 0x69,
  0x61, 0x6c, 0x2f, 0x63, 0x6f, 0x6e, 0x76, 0x32, 0x64, 0x2f, 0x52, 0x65,
  0x6c, 0x75, 0x3b, 0x73, 0x65, 0x71, 0x75, 0x65, 0x6e, 0x74, 0x69, 0x61,
  0x6c, 0x2f, 0x63, 0x6f, 0x6e, 0x76, 0x32, 0x64, 0x2f, 0x42, 0x69, 0x61,
  0x73, 0x41, 0x64, 0x64, 0x3b, 0x73, 0x65, 0x71, 0x75, 0x65, 0x6e, 0x74,
  0x69, 0x61, 0x6c, 0x2f, 0x63, 0x6f, 0x6e, 0x76, 0x32, 0x64, 0x2f, 0x43,
  0x6f, 0x6e, 0x76, 0x32, 0x44, 0x3b, 0x63, 0x6f, 0x6e, 0x76, 0x32, 0x64,
  0x2f, 0x62, 0x69, 0x61, 0x73, 0x00, 0x00, 0x00, 0x04, 0x00, 0x00, 0x00,
  0xff, 0xff, 0xff, 0xff, 0x40, 0x00, 0x00, 0x00, 0x03, 0x00, 0x00, 0x00,
  0x08, 0x00, 0x00, 0x00, 0x88, 0xd5, 0xff, 0xff, 0x6e, 0xd6, 0xff, 0xff,
  0x04, 0x00, 0x00, 0x00, 0x00, 0x08, 0x00, 0x00, 0xb7, 0xd0, 0xdc, 0x3e,
  0xd4, 0x45, 0x2f, 0x3d, 0x22, 0x26, 0x7d, 0x3e, 0x4d, 0x5c, 0x0e, 0xbe,
  0x32, 0x6e, 0xd8, 0xbd, 0x79, 0x40, 0xde, 0x3d, 0x5c, 0x14, 0xe5, 0x3d,
  0x5f, 0xee, 0x39, 0xbe, 0x00, 0xe0, 0xb5, 0x3d, 0xa9, 0xff, 0xef, 0xbd,
  0x74, 0xae, 0x8d, 0xbe, 0x6f, 0x3a, 0x40, 0x3d, 0xd9, 0x18, 0xad, 0x3c,
  0xa2, 0x79, 0x13, 0xbe, 0xef, 0x25, 0xdc, 0x3d, 0xb0, 0x87, 0x03, 0xbf,
  0x9f, 0xd2, 0x0b, 0xbf, 0x8e, 0xf1, 0xe4, 0xbd, 0x17, 0x5b, 0x81, 0xbe,
  0xe8, 0x8f, 0x1a, 0x3d, 0xca, 0x65, 0x09, 0x3d, 0xe0, 0x10, 0x32, 0xbf,
  0x10, 0x65, 0x89, 0x3d, 0x60, 0xdd, 0x8e, 0xbe, 0xaa, 0x3b, 0xca, 0xbe,
  0xab, 0xde, 0xb3, 0x3c, 0xc2, 0x88, 0x63, 0x3e, 0x62, 0x64, 0xad, 0xbc,
  0x73, 0x10, 0x47, 0xbd, 0x3d, 0xc3, 0x48, 0xbd, 0xc9, 0xb9, 0x38, 0x3d,
  0xff, 0xca, 0x6c, 0x3c, 0x06, 0xdc, 0x92, 0xbd, 0x4e, 0x35, 0x1f, 0xbe,
  0x83, 0xa4, 0x43, 0x3f, 0x7a, 0x01, 0x85, 0xbb, 0xcf, 0x18, 0xd5, 0xbd,
  0x4d, 0x34, 0xe6, 0xbd, 0x3c, 0xc0, 0x28, 0x3e, 0x65, 0xce, 0x12, 0xbe,
  0xe7, 0xb5, 0x31, 0xbe, 0x71, 0x8f, 0x83, 0xbe, 0x13, 0xd3, 0x70, 0x3b,
  0x2e, 0xd8, 0xb4, 0x3d, 0x88, 0x31, 0xfe, 0xbd, 0xb3, 0xe1, 0x79, 0xbe,
  0x75, 0xb9, 0xfd, 0x3d, 0xc1, 0x87, 0x5c, 0xbd, 0x9f, 0x65, 0x9a, 0xbd,
  0x0a, 0xa2, 0x85, 0xbe, 0xc8, 0x43, 0x30, 0xbe, 0x62, 0xf0, 0xc8, 0xbc,
  0xce, 0x48, 0xa5, 0xbd, 0x30, 0xc1, 0xa3, 0xbe, 0x7a, 0xd0, 0xe8, 0x3e,
  0x15, 0x42, 0x83, 0xbd, 0xf6, 0x67, 0xa7, 0x3e, 0x7e, 0xef, 0x22, 0xbe,
  0x0f, 0x75, 0x3a, 0xbe, 0xcf, 0xba, 0xb7, 0x3c, 0x48, 0x33, 0x2a, 0x3d,
  0x68, 0x35, 0x61, 0xbe, 0xa0, 0x25, 0xaa, 0x3d, 0x6f, 0x83, 0x53, 0xbd,
  0x3a, 0xd4, 0x25, 0xbe, 0x25, 0x15, 0x3a, 0xbd, 0x97, 0x48, 0xcf, 0xbd,
  0x85, 0x70, 0xb7, 0x3e, 0xa6, 0x0b, 0x06, 0xbe, 0xaf, 0x7c, 0x4e, 0xbe,
  0x52, 0x62, 0x90, 0x3e, 0xa5, 0x36, 0x4e, 0x3d, 0x8c, 0xf5, 0xa7, 0xbe,
  0xc8, 0x92, 0x06, 0xbe, 0x8f, 0xd7, 0x94, 0xbd, 0x81, 0x14, 0x24, 0xbe,
  0x29, 0x7b, 0xae, 0xbe, 0xbb, 0x26, 0xd7, 0xbd, 0x58, 0x94, 0x21, 0x3e,
  0xab, 0xb0, 0x60, 0xbd, 0x1d, 0xd3, 0x2c, 0xbe, 0x77, 0x34, 0x5d, 0xbd,
  0x43, 0x95, 0x60, 0xbd, 0xe8, 0xd9, 0x5a, 0xbe, 0xab, 0x16, 0x5a, 0xbe,
  0x64, 0xd0, 0x34, 0x3e, 0x4a, 0x05, 0x9c, 0x3e, 0xc3, 0x47, 0xf8, 0xbd,
  0x5a, 0x52, 0x56, 0xbb, 0x9a, 0x04, 0xca, 0x3d, 0xf6, 0x89, 0x08, 0x3d,
  0xd2, 0x06, 0x9b, 0xbe, 0xbe, 0x35, 0xe9, 0xbd, 0xf7, 0x78, 0xd4, 0x3e,
  0x6c, 0x13, 0x84, 0x3c, 0xeb, 0x61, 0xcf, 0xbd, 0x08, 0x69, 0x10, 0xbd,
  0x0c, 0x76, 0x5b, 0x3e, 0x58, 0x51, 0x98, 0xbe, 0x88, 0x9a, 0xf8, 0x3d,
  0x62, 0xcd, 0x0b, 0x3e, 0x83, 0x0a, 0xc3, 0xbe, 0x42, 0xed, 0x1c, 0x3e,
  0x80, 0x86, 0xb2, 0xbd, 0xef, 0x7f, 0x76, 0x3c, 0xf6, 0x60, 0x25, 0xbe,
  0x4a, 0x2c, 0x82, 0xbe, 0xbd, 0xf0, 0x6d, 0x3d, 0x11, 0xd4, 0xb3, 0xbd,
  0xa7, 0x4a, 0x91, 0xbe, 0x44, 0x9a, 0x88, 0x3e, 0xbd, 0x1e, 0x5c, 0xbe,
  0xe5, 0xf8, 0x5f, 0x3e, 0x14, 0xd6, 0x85, 0xbe, 0x55, 0x31, 0x71, 0xbe,
  0x46, 0x68, 0x98, 0x3d, 0x77, 0x6f, 0x3a, 0xbe, 0xc8, 0x6d, 0x45, 0x3d,
  0xdd, 0x1e, 0xef, 0x3e, 0x61, 0x11, 0x6a, 0xbe, 0xcc, 0x4f, 0xfc, 0xba,
  0xfc, 0x1c, 0x95, 0xbe, 0x2c, 0xb8, 0x12, 0x3f, 0xdb, 0x29, 0x96, 0x3d,
  0xb7, 0x3a, 0x8a, 0xbe, 0x5c, 0x85, 0x24, 0xbc, 0xaa, 0x5e, 0xd4, 0x3b,
  0xd0, 0x1f, 0x27, 0xbe, 0x0a, 0x47, 0x82, 0xbd, 0x02, 0x0d, 0x07, 0xbe,
  0xb9, 0x7f, 0x5b, 0xbd, 0x66, 0x80, 0x0c, 0xbe, 0xec, 0x95, 0xcf, 0xbd,
  0x97, 0x87, 0xf7, 0xbe, 0x71, 0x9c, 0x6c, 0x3e, 0xa5, 0xdf, 0xc0, 0xbd,
  0x26, 0xab, 0x5a, 0x3d, 0x9a, 0xbf, 0xb9, 0x3d, 0xea, 0x45, 0x3d, 0xbe,
  0x64, 0xcf, 0x2e, 0xbe, 0x22, 0xb1, 0x6b, 0xbc, 0xac, 0x85, 0xc6, 0xbe,
  0xb2, 0xbb, 0xd3, 0x3d, 0xcd, 0xf4, 0xc0, 0x3d, 0x8e, 0x4d, 0x52, 0x3d,
  0xfd, 0x94, 0xa2, 0x3d, 0xd3, 0xfd, 0x1a, 0xbe, 0xb3, 0x0f, 0x59, 0x3e,
  0x0c, 0x64, 0xfd, 0x3c, 0x23, 0xe4, 0xa0, 0xbe, 0xcf, 0x44, 0xcf, 0x3b,
  0xba, 0xa6, 0x2d, 0x3e, 0x51, 0x5f, 0xf7, 0x3c, 0xe4, 0x1b, 0x4b, 0x3c,
  0xc5, 0x53, 0xfe, 0xbd, 0x92, 0x03, 0xaf, 0x3e, 0xb6, 0x47, 0x0e, 0xbd,
  0xf8, 0x64, 0x39, 0xbe, 0xa6, 0xd8, 0x81, 0xbc, 0x67, 0x8f, 0xd9, 0x3d,
  0x84, 0x27, 0x88, 0xbd, 0xa5, 0xdd, 0x4b, 0x3e, 0x96, 0x13, 0xa5, 0xbd,
  0x41, 0xe3, 0x51, 0xbd, 0xa5, 0x9d, 0x24, 0xbe, 0xe0, 0x4e, 0xf4, 0x3b,
  0xc4, 0xa8, 0x49, 0xbd, 0x58, 0x90, 0x4d, 0x3e, 0x67, 0xbe, 0x3c, 0x3b,
  0x3b, 0xa5, 0xb5, 0xbd, 0xbb, 0x40, 0x23, 0x3e, 0xfb, 0x58, 0x23, 0xbd,
  0xf9, 0x90, 0xf0, 0x3e, 0xbf, 0x28, 0x98, 0x3d, 0x51, 0x4e, 0x54, 0xbc,
  0xe8, 0xe2, 0x0a, 0x3e, 0x23, 0x82, 0xfa, 0x3d, 0xa0, 0x79, 0xa2, 0xbd,
  0x32, 0x23, 0x86, 0xbd, 0x9f, 0xc7, 0x8d, 0x3d, 0xb1, 0xf1, 0x05, 0xbe,
  0x5e, 0x14, 0xf6, 0xbd, 0xf8, 0x08, 0x54, 0x3d, 0x24, 0xe6, 0x81, 0xbd,
  0xf8, 0x2f, 0x84, 0xbc, 0x17, 0x32, 0xd3, 0x3d, 0x42, 0xaa, 0x39, 0x3c,
  0x91, 0x69, 0xb5, 0xbd, 0xbf, 0x2e, 0xf4, 0x3d, 0xb2, 0xc6, 0xde, 0xbd,
  0x84, 0xbf, 0xb5, 0xbc, 0x65, 0x95, 0x9c, 0x3e, 0x42, 0x8c, 0xe9, 0xbe,
  0xbc, 0xec, 0x1d, 0xbe, 0x79, 0xb9, 0xd2, 0xbd, 0x84, 0x38, 0xd6, 0xbd,
  0x09, 0x4d, 0xe4, 0xbd, 0xa4, 0x4f, 0x42, 0xbd, 0xf4, 0xcb, 0xab, 0x3e,
  0x46, 0x98, 0x0d, 0xbe, 0xdb, 0xa4, 0x9e, 0xbe, 0xb2, 0x91, 0xa0, 0x3d,
  0x81, 0x20, 0x30, 0x3d, 0xfa, 0xc5, 0xea, 0xbd, 0x71, 0x23, 0x02, 0xbd,
  0x9c, 0x06, 0xc8, 0x3d, 0x19, 0xea, 0x4e, 0x3d, 0x8c, 0xf3, 0x4d, 0xbd,
  0xe5, 0x58, 0x56, 0xbe, 0x8a, 0x44, 0x71, 0x3b, 0xd2, 0x93, 0x49, 0xbd,
  0x70, 0x9d, 0x24, 0xbe, 0x4e, 0x7f, 0x25, 0xbd, 0xee, 0xac, 0x00, 0x3e,
  0xe6, 0x4e, 0x28, 0xbe, 0x04, 0xa0, 0x0d, 0xbe, 0x3b, 0x24, 0x1f, 0x3f,
  0x38, 0xe8, 0xeb, 0xb9, 0x25, 0x3d, 0xfd, 0xbc, 0x13, 0x0a, 0xa2, 0xba,
  0x1b, 0x3e, 0x98, 0x3d, 0xac, 0x1a, 0xcc, 0xbd, 0x42, 0x9a, 0xc0, 0xbb,
  0xce, 0xac, 0xc1, 0xbe, 0x7b, 0xbc, 0xeb, 0xbe, 0x2d, 0x7a, 0x3b, 0xbe,
  0xcd, 0xc6, 0x03, 0xbe, 0x74, 0x81, 0x0e, 0xbf, 0x87, 0xc4, 0x91, 0xbe,
  0x86, 0x41, 0x14, 0xbd, 0xbf, 0x66, 0x3f, 0xbf, 0x45, 0xe4, 0x9d, 0xbe,
  0xa9, 0x00, 0x5b, 0xbe, 0x10, 0xca, 0xe0, 0x3d, 0x60, 0xa0, 0xa8, 0x3d,
  0xa7, 0xa7, 0x5f, 0xbe, 0x64, 0xd0, 0x3f, 0xbd, 0x8f, 0x8f, 0xf3, 0xbd,
  0x3e, 0x9f, 0xf9, 0xbc, 0x4d, 0xb3, 0x33, 0x3f, 0x43, 0x33, 0xa0, 0x3d,
  0x72, 0xdb, 0x14, 0xbd, 0x3d, 0xbb, 0x97, 0x3d, 0x16, 0xb6, 0xcf, 0xbd,
  0x50, 0x87, 0x66, 0xbe, 0x44, 0xf0, 0xb5, 0x3d, 0x72, 0x4b, 0x3f, 0x3e,
  0x9d, 0x0b, 0xdb, 0x3d, 0x14, 0x1f, 0x5e, 0x3e, 0x2f, 0x21, 0xc4, 0xbd,
  0x10, 0x71, 0x53, 0x3d, 0xbe, 0x93, 0xf3, 0xbd, 0x29, 0x43, 0x27, 0xbd,
  0x71, 0xce, 0x06, 0x3d, 0x6b, 0x99, 0xc8, 0x3c, 0x26, 0x58, 0xf9, 0xbc,
  0x33, 0x56, 0xea, 0xbd, 0xea, 0x49, 0x97, 0xbd, 0x3c, 0x0d, 0x02, 0xbd,
  0xae, 0x0e, 0xc9, 0xbc, 0x92, 0x21, 0x92, 0x3d, 0xd5, 0x25, 0xa1, 0x3d,
  0x1a, 0x33, 0xac, 0xbe, 0x06, 0x19, 0xfc, 0xbe, 0x04, 0x06, 0x63, 0x3d,
  0x60, 0x82, 0x39, 0xbd, 0xc6, 0xd3, 0x1d, 0xbe, 0x45, 0x75, 0x95, 0xbd,
  0x93, 0x31, 0xa9, 0x39, 0x09, 0x0b, 0x48, 0xbc, 0x02, 0x1f, 0x2a, 0xbe,
  0x39, 0xb9, 0xd9, 0xbe, 0x9e, 0x84, 0x4d, 0x3d, 0x75, 0x90, 0x01, 0x3e,
  0x0d, 0x27, 0x42, 0x3c, 0xd7, 0x8e, 0x25, 0x3e, 0x52, 0x13, 0xef, 0x3d,
  0x63, 0xd2, 0x83, 0xbe, 0x4d, 0xb5, 0x43, 0x3e, 0x21, 0x89, 0x14, 0xbf,
  0x32, 0xa1, 0xeb, 0x3d, 0xdc, 0x7b, 0xdc, 0xbd, 0x73, 0x3a, 0xe5, 0xbe,
  0xf3, 0x4d, 0x41, 0x3d, 0xa5, 0x9a, 0x68, 0xbd, 0x2a, 0xea, 0x47, 0xbf,
  0x7a, 0x0d, 0x93, 0x3e, 0xed, 0x7c, 0x33, 0xbf, 0x96, 0x82, 0x7f, 0xbe,
  0xa9, 0x7c, 0x03, 0xbe, 0xb4, 0xbf, 0x1b, 0x3e, 0xf8, 0x84, 0x99, 0xbc,
  0x9c, 0xbf, 0x55, 0xbe, 0x69, 0xb9, 0x3e, 0x3c, 0x01, 0x01, 0x0d, 0xbe,
  0xa7, 0xd6, 0xf1, 0x3d, 0x65, 0x93, 0x1e, 0x3e, 0xc3, 0xfc, 0x3b, 0xbe,
  0x66, 0x5a, 0x85, 0x3e, 0x79, 0x45, 0x14, 0xbe, 0xbe, 0xad, 0xc2, 0xbe,
  0x0e, 0x09, 0x79, 0xbd, 0xb1, 0xd0, 0x03, 0x3e, 0x67, 0x94, 0x8b, 0x3e,
  0xb7, 0x1e, 0x43, 0x3c, 0x80, 0x2d, 0x9f, 0xbe, 0xe5, 0xa5, 0xb7, 0xbd,
  0xdf, 0x1f, 0x44, 0xbd, 0xdd, 0x58, 0x49, 0xbe, 0x9d, 0x24, 0x6d, 0x3d,
  0x91, 0xde, 0xba, 0x3e, 0xe9, 0xf7, 0x30, 0xbe, 0x59, 0xf1, 0x66, 0x3b,
  0x37, 0xdf, 0x14, 0xbe, 0x36, 0x27, 0x23, 0xbf, 0x9d, 0x1c, 0x14, 0xbd,
  0x0a, 0x5d, 0x78, 0x3e, 0x28, 0xd2, 0xcd, 0xbe, 0x38, 0x46, 0xf7, 0xbc,
  0xbc, 0x4a, 0x13, 0xbf, 0x35, 0x15, 0x10, 0x3e, 0xff, 0xb1, 0x1f, 0xbe,
  0xae, 0x7d, 0x6d, 0xbd, 0x93, 0xfd, 0x5d, 0x3e, 0x47, 0x0d, 0x83, 0xbe,
  0x22, 0x30, 0x1e, 0x3b, 0x1a, 0x2c, 0xdc, 0xbe, 0x84, 0xdc, 0xd3, 0xbd,
  0xf3, 0x21, 0x6d, 0x3d, 0xcc, 0x29, 0x46, 0xbd, 0xba, 0x72, 0x03, 0x3d,
  0xa0, 0x7d, 0x1a, 0xbd, 0xdb, 0xe3, 0x34, 0xbe, 0x1f, 0xa9, 0xb4, 0xbd,
  0xff, 0x7a, 0xd5, 0xbe, 0x30, 0x1d, 0x50, 0x3d, 0xd6, 0x8b, 0x95, 0xbc,
  0xdc, 0x89, 0x57, 0xbd, 0x22, 0x10, 0x01, 0x3d, 0xe8, 0x18, 0xe2, 0x3c,
  0x53, 0x63, 0x28, 0xbe, 0xa6, 0x6a, 0x00, 0xbe, 0x73, 0x1d, 0xb9, 0xbe,
  0x17, 0xd1, 0x84, 0xbe, 0x45, 0xbe, 0x44, 0x3e, 0x83, 0x14, 0x0c, 0xbe,
  0x2e, 0xc9, 0x0e, 0x3d, 0xa4, 0xaa, 0x32, 0x3e, 0x3c, 0x79, 0xaa, 0x3b,
  0xc3, 0xcd, 0x34, 0xbe, 0xdd, 0xee, 0x86, 0xbe, 0xa6, 0xbe, 0xab, 0xbd,
  0x9b, 0x38, 0x47, 0x3d, 0x8d, 0x47, 0x01, 0xbf, 0x97, 0x7c, 0x98, 0xbe,
  0x72, 0x1f, 0x27, 0xbe, 0xa5, 0x12, 0xeb, 0xbd, 0x4f, 0xec, 0x97, 0xbd,
  0xc7, 0xa3, 0x90, 0x3b, 0x74, 0x59, 0x3b, 0xbf, 0xf9, 0x04, 0xb3, 0x3d,
  0xa4, 0x84, 0xd9, 0xbe, 0xb9, 0x4a, 0x9d, 0x3e, 0x7e, 0xdd, 0x3d, 0x3e,
  0xc2, 0x39, 0xc2, 0xbd, 0x5a, 0x7f, 0x0e, 0x3e, 0x96, 0x02, 0x90, 0x3c,
  0x07, 0x78, 0x86, 0xbe, 0x48, 0xf3, 0x02, 0xbd, 0x6e, 0x16, 0xb4, 0xbe,
  0xa7, 0xec, 0x2d, 0x3e, 0xde, 0x38, 0x73, 0x3d, 0xb7, 0xd8, 0xdc, 0xbd,
  0xcb, 0x10, 0x83, 0xbc, 0x32, 0x56, 0xf6, 0xbd, 0xb0, 0x22, 0x8d, 0xbe,
  0x38, 0x60, 0xda, 0x3d, 0x84, 0x80, 0x16, 0xbe, 0xa9, 0x4d, 0x99, 0x3e,
  0x0a, 0x09, 0x46, 0x3e, 0x74, 0x16, 0xda, 0xbd, 0xcf, 0x89, 0x2c, 0xbc,
  0x51, 0x3a, 0xd1, 0x3c, 0x9a, 0xec, 0xda, 0xbd, 0x0a, 0xe8, 0x5a, 0xbe,
  0xad, 0x4b, 0x41, 0xbe, 0x4d, 0x5d, 0x2a, 0xbe, 0xbf, 0x13, 0x6f, 0xbc,
  0x20, 0x08, 0x3b, 0xbe, 0x36, 0x94, 0x6f, 0xbe, 0x3b, 0xe1, 0x58, 0xbe,
  0x28, 0x44, 0xd2, 0xba, 0xe8, 0xf1, 0x00, 0xbe, 0xe4, 0xbc, 0xbc, 0xbd,
  0xa4, 0x8a, 0x07, 0xbc, 0x31, 0x2b, 0xd4, 0xbd, 0x35, 0xe4, 0x96, 0xbe,
  0x8c, 0x7c, 0x04, 0xbd, 0xb9, 0x41, 0xa9, 0xbe, 0xd3, 0x5b, 0xa0, 0xbe,
  0x50, 0x28, 0xd8, 0xbe, 0x93, 0xfd, 0x07, 0xbe, 0xdb, 0x7e, 0xfc, 0x3d,
  0xfe, 0x12, 0x64, 0xbe, 0xa4, 0x6b, 0x1e, 0xbe, 0xbf, 0x3e, 0x86, 0xbe,
  0x66, 0xc0, 0x90, 0xbe, 0xa0, 0xf7, 0x65, 0x3c, 0x1f, 0x62, 0x93, 0xbd,
  0xc1, 0x06, 0x33, 0xbe, 0xcc, 0xe6, 0x9f, 0xbd, 0x98, 0x6f, 0xd7, 0xbd,
  0x75, 0x59, 0x6c, 0xbe, 0xe6, 0x1d, 0x11, 0xbe, 0x4a, 0xaf, 0x6c, 0xbe,
  0x27, 0xe7, 0x4b, 0xbd, 0xa7, 0x82, 0xb7, 0x3e, 0xa1, 0x4b, 0xbc, 0x3e,
  0x3d, 0x9b, 0x99, 0xbd, 0xba, 0x59, 0x85, 0x3e, 0x19, 0x77, 0x1f, 0x3e,
  0x5a, 0x58, 0x7c, 0xbe, 0xc7, 0x15, 0x59, 0x3d, 0x6b, 0x7c, 0xf3, 0x3c,
  0x63, 0x9d, 0xe3, 0xbd, 0x4a, 0x8c, 0x30, 0xbd, 0x97, 0x43, 0x4b, 0xbe,
  0x8d, 0x28, 0x37, 0x3e, 0x22, 0x60, 0xb2, 0xbd, 0x5d, 0x22, 0xb3, 0xbe,
  0x5f, 0xb6, 0x66, 0x3b, 0x5e, 0x20, 0xe8, 0x3d, 0xfa, 0x6f, 0xb8, 0xbe,
  0xbe, 0xa7, 0x16, 0xbe, 0x5e, 0x32, 0x47, 0xbb, 0xaf, 0xbb, 0x78, 0xbc,
  0x8d, 0x13, 0x26, 0xbe, 0x6a, 0x55, 0x01, 0xbe, 0xbe, 0x60, 0x5a, 0xbd,
  0xd4, 0x2b, 0x8d, 0x3d, 0xad, 0x0e, 0xc6, 0xbe, 0xb0, 0xdf, 0x4e, 0xbe,
  0x82, 0x95, 0x0c, 0xba, 0x69, 0xb8, 0x59, 0xbe, 0x33, 0x3b, 0x62, 0xbe,
  0xe0, 0x4e, 0x1f, 0x36, 0x19, 0xaa, 0x0e, 0xbc, 0x36, 0x1d, 0x1b, 0xbd,
  0xd4, 0xb4, 0x4d, 0xbe, 0x0c, 0xc6, 0xde, 0xbd, 0x08, 0xb8, 0xb3, 0xbd,
  0x73, 0x7b, 0x93, 0xbe, 0xa9, 0x64, 0x81, 0xbd, 0xf5, 0xa8, 0x04, 0x3e,
  0x66, 0x55, 0x7e, 0xba, 0x88, 0x95, 0x62, 0xbe, 0x43, 0xbe, 0x3f, 0x3e,
  0xa9, 0x00, 0x0c, 0xbd, 0xe2, 0x5d, 0x99, 0xbc, 0xd5, 0x5d, 0x9d, 0xbd,
  0x2f, 0xec, 0x81, 0x3d, 0x40, 0xec, 0x9b, 0x3c, 0xa6, 0x4c, 0xdc, 0xbc,
  0xaa, 0x4d, 0x80, 0xbe, 0xc6, 0x2a, 0x9b, 0xbd, 0xe1, 0x64, 0x50, 0xbd,
  0xf2, 0x40, 0xd5, 0xba, 0x26, 0x29, 0xa6, 0xbd, 0xd2, 0xbc, 0x8b, 0x3c,
  0x8a, 0x01, 0xa8, 0xbb, 0xf8, 0xcc, 0x11, 0x3e, 0xb1, 0x75, 0xe3, 0xbd,
  0x4e, 0x2e, 0x75, 0x3e, 0x58, 0xe8, 0x13, 0x3b, 0xae, 0x96, 0x9f, 0x3c,
  0x48, 0xb1, 0xfc, 0x3d, 0x7a, 0xb0, 0x63, 0xbd, 0x77, 0x6d, 0xb9, 0xbd,
  0x29, 0xc3, 0x83, 0x3b, 0xf5, 0x62, 0xdf, 0x3e, 0x25, 0x5c, 0x9b, 0xbe,
  0xd8, 0x0b, 0x79, 0xbd, 0x8a, 0xf8, 0x8c, 0xbd, 0x5e, 0x70, 0x24, 0xbe,
  0xe9, 0x2d, 0xae, 0xbe, 0x9b, 0xb2, 0xb1, 0xbc, 0x06, 0x55, 0x6f, 0xbe,
  0x81, 0xb8, 0x1b, 0xbe, 0x40, 0xe8, 0xef, 0x3d, 0xb4, 0x3e, 0x0f, 0xbd,
  0x61, 0x2e, 0x2d, 0x3e, 0x04, 0x98, 0xe6, 0xbd, 0x82, 0xfa, 0x72, 0xbe,
  0xf6, 0x5d, 0xd1, 0xbd, 0x9c, 0xd8, 0x81, 0xbd, 0x8c, 0xc0, 0xfd, 0x3e,
  0xec, 0xf4, 0xdd, 0x3e, 0x3e, 0x72, 0xae, 0xbe, 0xd7, 0x2f, 0xbd, 0xbc,
  0xad, 0xdd, 0xe2, 0xbd, 0xbf, 0x32, 0x68, 0xbe, 0xb7, 0x02, 0x8a, 0x3c,
  0x18, 0xa8, 0x6c, 0x3c, 0x51, 0xc3, 0x7c, 0xbe, 0x44, 0x16, 0x67, 0xbe,
  0xb6, 0x5b, 0x96, 0xbe, 0xdd, 0xac, 0x64, 0xbd, 0x95, 0xa9, 0xc9, 0xbd,
  0x3a, 0x92, 0xfd, 0xbb, 0xed, 0x38, 0x0c, 0xbd, 0xe1, 0xcb, 0x08, 0xbe,
  0x99, 0x1b, 0x10, 0xbe, 0x56, 0xde, 0xff, 0xff, 0x10, 0x00, 0x00, 0x00,
  0x0a, 0x00, 0x00, 0x00, 0x1c, 0x00, 0x00, 0x00, 0x38, 0x00, 0x00, 0x00,
  0x04, 0x00, 0x00, 0x00, 0x10, 0x00, 0x00, 0x00, 0x04, 0x00, 0x00, 0x00,
  0x01, 0x00, 0x00, 0x00, 0x08, 0x00, 0x00, 0x00, 0x1a, 0x00, 0x00, 0x00,
  0x73, 0x65, 0x71, 0x75, 0x65, 0x6e, 0x74, 0x69, 0x61, 0x6c, 0x2f, 0x63,
  0x6f, 0x6e, 0x76, 0x32, 0x64, 0x5f, 0x31, 0x2f, 0x43, 0x6f, 0x6e, 0x76,
  0x32, 0x44, 0x00, 0x00, 0xe0, 0xdd, 0xff, 0xff, 0xc6, 0xde, 0xff, 0xff,
  0x04, 0x00, 0x00, 0x00, 0x80, 0x01, 0x00, 0x00, 0x06, 0x70, 0xab, 0x3d,
  0xb3, 0xf6, 0x38, 0x3d, 0x54, 0xfd, 0x39, 0xbd, 0x74, 0x3d, 0xbf, 0x3e,
  0xe5, 0x73, 0x6f, 0x3e, 0x05, 0x35, 0x22, 0xbd, 0x77, 0x62, 0xcc, 0xbd,
  0x86, 0xe6, 0xb8, 0xbc, 0x3a, 0x1f, 0xac, 0x3d, 0xb9, 0xec, 0x86, 0xbe,
  0x72, 0xe3, 0x87, 0xbe, 0x7b, 0x65, 0x05, 0x3e, 0x40, 0x41, 0x67, 0xbc,
  0x0c, 0x8d, 0x01, 0x3d, 0xc0, 0x34, 0x5b, 0xbd, 0x90, 0xbf, 0xf9, 0xbd,
  0x1d, 0x2d, 0x4e, 0xbd, 0x6f, 0x6d, 0xd0, 0x3c, 0x6f, 0x37, 0x72, 0x3e,
  0x6f, 0xcf, 0xbb, 0x3e, 0xdd, 0x6c, 0xa8, 0xbe, 0x94, 0x7e, 0x22, 0x3d,
  0xaf, 0xbd, 0x6a, 0xbe, 0x34, 0x2b, 0x41, 0x3e, 0x9b, 0x5a, 0x37, 0x3e,
  0x6e, 0x0f, 0x25, 0xbe, 0x52, 0x9d, 0x8f, 0xbd, 0x44, 0x2b, 0xb3, 0x3e,
  0xd3, 0x58, 0x1c, 0xbb, 0x0a, 0x70, 0xfb, 0x3d, 0x7a, 0xd8, 0x6e, 0x3e,
  0xf1, 0xb3, 0xcc, 0x3d, 0x8b, 0xac, 0x74, 0x3d, 0xa4, 0xde, 0x9f, 0xbd,
  0x77, 0x45, 0x7e, 0x3e, 0xb2, 0xe9, 0x1e, 0xbe, 0x93, 0x08, 0x04, 0x3e,
  0xe4, 0x7e, 0x5a, 0xbe, 0x0f, 0x78, 0x02, 0x3e, 0xfc, 0x18, 0xc2, 0xbb,
  0xe0, 0x52, 0xaa, 0xbd, 0xc8, 0x81, 0x0a, 0x3e, 0xc9, 0x0a, 0xdc, 0xbd,
  0x5a, 0x16, 0x0d, 0x3e, 0x50, 0x13, 0xa2, 0xb6, 0xf2, 0x32, 0x06, 0xbd,
  0xf3, 0x38, 0x28, 0x3e, 0xe2, 0x29, 0x99, 0xbd, 0x0b, 0x71, 0xac, 0x3e,
  0x7d, 0x80, 0xcb, 0xbd, 0xab, 0xc6, 0xea, 0xb9, 0x8b, 0x4a, 0xe1, 0xbe,
  0xae, 0x08, 0x17, 0x3e, 0xc6, 0x7e, 0x87, 0xbe, 0x32, 0xb3, 0x59, 0x3c,
  0xe2, 0x3d, 0x37, 0x3e, 0x7c, 0x53, 0x0b, 0xbe, 0x57, 0x17, 0x7a, 0x3e,
  0x66, 0x9f, 0x7d, 0xbe, 0x2e, 0xa7, 0xd3, 0x3d, 0xf0, 0x9d, 0x68, 0x3e,
  0x06, 0x29, 0x33, 0x3e, 0x64, 0x5f, 0xde, 0x3d, 0x2d, 0xfc, 0x6f, 0xbe,
  0x7b, 0xab, 0x9c, 0xbd, 0xbf, 0x77, 0x46, 0x3e, 0x97, 0x21, 0x15, 0x3e,
  0xae, 0xbf, 0x85, 0x3d, 0x95, 0xde, 0x3d, 0xbe, 0x58, 0xd2, 0x8f, 0x3e,
  0x22, 0x8b, 0xd5, 0xbd, 0xc7, 0x3f, 0x1b, 0x3d, 0x0b, 0x44, 0xbc, 0xbe,
  0x6b, 0xdf, 0x2a, 0x3e, 0x7b, 0x97, 0x06, 0xbc, 0x54, 0x2e, 0x6b, 0xbd,
  0xe3, 0x62, 0x67, 0x3e, 0xc7, 0xc1, 0xb4, 0x3d, 0xb5, 0x80, 0x43, 0x3e,
  0x75, 0x6a, 0xd6, 0xbd, 0xa4, 0x2c, 0x1b, 0x3d, 0x33, 0xab, 0x96, 0x3e,
  0x2f, 0x79, 0x98, 0xbe, 0xdc, 0x95, 0xec, 0xbc, 0xdc, 0x2f, 0x35, 0xbc,
  0x22, 0x84, 0x75, 0xbc, 0x3f, 0x61, 0xaf, 0x3c, 0x0a, 0x82, 0x1c, 0xbd,
  0x1d, 0x3e, 0x8c, 0xbd, 0x3a, 0xd6, 0x30, 0xbf, 0xad, 0x83, 0x58, 0x3d,
  0x3c, 0x37, 0x0c, 0x3e, 0x03, 0x09, 0x26, 0x3f, 0xa9, 0x14, 0xe5, 0x3d,
  0x26, 0xd8, 0x2b, 0x3e, 0x78, 0xd9, 0x49, 0x3e, 0x2e, 0xe0, 0xff, 0xff,
  0x10, 0x00, 0x00, 0x00, 0x09, 0x00, 0x00, 0x00, 0x1c, 0x00, 0x00, 0x00,
  0x38, 0x00, 0x00, 0x00, 0x04, 0x00, 0x00, 0x00, 0x08, 0x00, 0x00, 0x00,
  0x04, 0x00, 0x00, 0x00, 0x03, 0x00, 0x00, 0x00, 0x01, 0x00, 0x00, 0x00,
  0x18, 0x00, 0x00, 0x00, 0x73, 0x65, 0x71, 0x75, 0x65, 0x6e, 0x74, 0x69,
  0x61, 0x6c, 0x2f, 0x63, 0x6f, 0x6e, 0x76, 0x32, 0x64, 0x2f, 0x43, 0x6f,
  0x6e, 0x76, 0x32, 0x44, 0x00, 0x00, 0x00, 0x00, 0xb8, 0xdf, 0xff, 0xff,
  0x9e, 0xe0, 0xff, 0xff, 0x04, 0x00, 0x00, 0x00, 0x00, 0x01, 0x00, 0x00,
  0x13, 0x39, 0x34, 0x3e, 0x46, 0x51, 0x0a, 0x3e, 0x02, 0x8d, 0x2e, 0xbd,
  0x1d, 0xbb, 0xca, 0xbe, 0xb8, 0xa7, 0xec, 0x3d, 0xbc, 0xa0, 0x3b, 0x3e,
  0x17, 0x6e, 0x51, 0xbe, 0x19, 0x38, 0x69, 0xbe, 0x4e, 0x55, 0xd1, 0x3e,
  0xe5, 0x88, 0xdd, 0x3e, 0x6f, 0x7d, 0x75, 0x3e, 0xb0, 0x63, 0x31, 0x3e,
  0xc6, 0x9d, 0x2e, 0x3e, 0x6e, 0x91, 0x0b, 0x3d, 0x3b, 0x1c, 0xdb, 0x3e,
  0xcc, 0x0b, 0xae, 0xbe, 0x10, 0xc4, 0x59, 0x3e, 0xc0, 0xcb, 0x01, 0x3e,
  0xe5, 0x6b, 0x00, 0xbd, 0x7f, 0xdb, 0x4d, 0xbe, 0x14, 0x41, 0xde, 0x3d,
  0xc2, 0x7e, 0x68, 0x3e, 0x8b, 0x87, 0x8a, 0xbe, 0x30, 0xb6, 0x9d, 0x3c,
  0xe0, 0x48, 0xf5, 0x3e, 0x1f, 0xd3, 0x9a, 0x3e, 0x2d, 0x0a, 0x8e, 0x3e,
  0x4a, 0x46, 0x17, 0xbe, 0x5b, 0x1e, 0x79, 0xbe, 0x06, 0x48, 0x39, 0x3c,
  0xd0, 0x5b, 0xcf, 0x3e, 0xf4, 0xdf, 0x9b, 0x3c, 0x4a, 0x03, 0xfa, 0x3d,
  0x5d, 0xef, 0xef, 0x3d, 0xb3, 0x32, 0xea, 0x3c, 0x2d, 0x1e, 0xa1, 0xbe,
  0x1f, 0x46, 0x2a, 0x3e, 0xed, 0xd1, 0x35, 0x3e, 0x50, 0x88, 0x89, 0xbe,
  0x7e, 0x00, 0x6b, 0x3e, 0xda, 0xb1, 0xa0, 0x3e, 0x17, 0x08, 0x92, 0xbe,
  0x32, 0x4d, 0x3e, 0x3e, 0xbc, 0x2a, 0xd8, 0xbe, 0xaa, 0x26, 0xe8, 0xbe,
  0x67, 0xf9, 0xf0, 0xbc, 0x76, 0xe7, 0xbf, 0x3e, 0x11, 0xc7, 0xb3, 0xbe,
  0xcc, 0x28, 0x6c, 0x3e, 0xb6, 0x13, 0xb7, 0x3c, 0xf7, 0x42, 0x1b, 0xbd,
  0x1a, 0x60, 0x54, 0x3e, 0x23, 0xbb, 0xf9, 0x3d, 0x93, 0xaf, 0x2a, 0x3e,
  0xf8, 0x9d, 0x8d, 0xbe, 0x1c, 0xfb, 0x98, 0x3e, 0x0d, 0xca, 0xed, 0x3e,
  0x83, 0x75, 0x32, 0xbf, 0xd4, 0xe6, 0x5a, 0x3e, 0xcc, 0x53, 0x8e, 0xbe,
  0x67, 0x51, 0xb3, 0xbe, 0x4b, 0xc0, 0x26, 0xbd, 0x89, 0xc2, 0xc2, 0x3e,
  0x7b, 0xcd, 0x81, 0x3e, 0x86, 0xe1, 0xff, 0xff, 0x10, 0x00, 0x00, 0x00,
  0x08, 0x00, 0x00, 0x00, 0x14, 0x00, 0x00, 0x00, 0x30, 0x00, 0x00, 0x00,
  0x02, 0x00, 0x00, 0x00, 0x04, 0x00, 0x00, 0x00, 0x10, 0x00, 0x00, 0x00,
  0x19, 0x00, 0x00, 0x00, 0x73, 0x65, 0x71, 0x75, 0x65, 0x6e, 0x74, 0x69,
  0x61, 0x6c, 0x2f, 0x64, 0x65, 0x6e, 0x73, 0x65, 0x5f, 0x31, 0x2f, 0x4d,
  0x61, 0x74, 0x4d, 0x75, 0x6c, 0x00, 0x00, 0x00, 0x08, 0xe1, 0xff, 0xff,
  0xee, 0xe1, 0xff, 0xff, 0x04, 0x00, 0x00, 0x00, 0x00, 0x1c, 0x00, 0x00,
  0xaa, 0x2e, 0xed, 0xbe, 0x8a, 0x06, 0xae, 0xbe, 0x5c, 0xa8, 0x72, 0xbe,
  0xbe, 0x19, 0xa6, 0xbe, 0x07, 0xa1, 0x34, 0x3d, 0x54, 0xa7, 0xcf, 0x3c,
  0x68, 0xb6, 0x06, 0x3e, 0xd4, 0xae, 0xef, 0xba, 0x2c, 0x62, 0x95, 0xbc,
  0x64, 0x75, 0xe1, 0xbd, 0x98, 0x8f, 0x80, 0x3d, 0x8a, 0x8f, 0x38, 0x3e,
  0xac, 0xc9, 0xa2, 0xbe, 0x79, 0xfb, 0x97, 0xbe, 0x3a, 0x3f, 0x46, 0xbd,
  0x80, 0xf7, 0x0c, 0xbf, 0x11, 0xaa, 0x49, 0xbe, 0xec, 0xbe, 0x9c, 0xbe,
  0xa7, 0x5e, 0x40, 0xbf, 0x79, 0x6c, 0xd6, 0xbe, 0x7d, 0xb1, 0x9a, 0xbd,
  0x26, 0x84, 0x9c, 0x3d, 0x34, 0x36, 0xcb, 0x3c, 0x05, 0xc8, 0xc8, 0x3c,
  0x0b, 0x8f, 0xa2, 0xbc, 0x9b, 0x12, 0x80, 0xbe, 0xd6, 0x37, 0x48, 0x3e,
  0xdc, 0x70, 0x90, 0x3d, 0x0b, 0x12, 0x43, 0xbe, 0x18, 0x15, 0x9d, 0xbe,
  0xea, 0x56, 0x12, 0x3e, 0xaa, 0x34, 0xf6, 0x3e, 0xaa, 0x5e, 0x8a, 0xbe,
  0x7b, 0x37, 0xca, 0xbd, 0x8a, 0x11, 0xe9, 0xbe, 0x60, 0x37, 0x6e, 0xbe,
  0xbb, 0x15, 0xdf, 0xbd, 0x8f, 0xb1, 0x83, 0x3d, 0x25, 0xf6, 0x82, 0xbc,
  0x16, 0xbb, 0x9a, 0x3e, 0x0b, 0x9a, 0x80, 0x3c, 0x6e, 0xec, 0x04, 0xbe,
  0x88, 0x94, 0xf3, 0x3d, 0xf1, 0x93, 0xa9, 0x3d, 0x8c, 0x88, 0x4c, 0xbe,
  0xaa, 0xa3, 0x35, 0xbe, 0x01, 0x2c, 0x8a, 0x3e, 0xda, 0xb9, 0xb8, 0x3e,
  0xac, 0xb8, 0x4d, 0x3d, 0xbf, 0x42, 0x25, 0xbe, 0x7b, 0x24, 0xa2, 0xbd,
  0x95, 0x3b, 0x87, 0xbe, 0x67, 0x4d, 0xbb, 0xbd, 0x7f, 0xa6, 0x55, 0x3d,
  0x58, 0x24, 0x5c, 0x3e, 0x01, 0x6b, 0xc4, 0x3e, 0x21, 0x64, 0x19, 0x3e,
  0xf6, 0x38, 0x2b, 0xbe, 0xc6, 0x62, 0xff, 0x3d, 0x3f, 0x91, 0xa7, 0x3d,
  0xf5, 0x79, 0xeb, 0xbe, 0x6b, 0x4c, 0x96, 0xbd, 0x3b, 0x1b, 0x3a, 0x3e,
  0x26, 0x63, 0xf1, 0x3e, 0x14, 0x39, 0xef, 0x3c, 0x88, 0xad, 0x77, 0xbe,
  0xf6, 0xef, 0x40, 0xbf, 0xa7, 0xe2, 0x99, 0xbe, 0xca, 0xbb, 0xef, 0xbd,
  0x76, 0xb3, 0x18, 0x3d, 0x1f, 0xcf, 0x08, 0x3d, 0x5c, 0x83, 0xd4, 0x3e,
  0x54, 0x33, 0x27, 0x3e, 0x33, 0x07, 0x03, 0xbe, 0x7a, 0xab, 0x1a, 0x3e,
  0x26, 0x6a, 0x40, 0x3d, 0xcc, 0xc0, 0xfb, 0xbe, 0xe1, 0x5d, 0x0a, 0xbe,
  0x90, 0x06, 0xb1, 0x3d, 0x6f, 0x3f, 0x0b, 0x3f, 0x85, 0x0e, 0x1d, 0xbe,
  0x83, 0x94, 0xb1, 0xbe, 0xa5, 0xb4, 0x18, 0xbf, 0x5b, 0x17, 0x46, 0xbe,
  0xeb, 0x99, 0x03, 0xbe, 0xe6, 0x1c, 0xb2, 0x3c, 0x14, 0x84, 0xda, 0xbe,
  0x20, 0xa4, 0xd3, 0x3d, 0x5e, 0x28, 0x91, 0x3d, 0x02, 0x2e, 0x9c, 0xbe,
  0x5b, 0x92, 0x63, 0xbc, 0xc9, 0xb5, 0x2c, 0x3e, 0xb3, 0x93, 0x16, 0xbf,
  0xe8, 0x94, 0x83, 0xbe, 0x61, 0xa0, 0xf1, 0xbd, 0xe3, 0x38, 0x7a, 0x3e,
  0xc6, 0xca, 0x1d, 0xbe, 0x0f, 0xa7, 0xf4, 0xbc, 0xa3, 0x3b, 0x91, 0xbe,
  0xc6, 0xdd, 0x03, 0xbe, 0x17, 0x10, 0x15, 0xbe, 0x51, 0x57, 0xb4, 0x3c,
  0x94, 0xfa, 0xbf, 0xbd, 0xe1, 0xed, 0x44, 0x3d, 0xf6, 0xd1, 0x93, 0x3e,
  0x6e, 0xa8, 0x27, 0xbe, 0x61, 0x37, 0x50, 0xbd, 0xd5, 0x44, 0xac, 0x3e,
  0xd2, 0xe8, 0x03, 0xbf, 0x6e, 0x71, 0x2a, 0x3c, 0x7d, 0x78, 0x3d, 0xbe,
  0x74, 0xe2, 0x22, 0xbe, 0x8d, 0xe7, 0x70, 0x3e, 0x7d, 0xfb, 0xf3, 0x3d,
  0x91, 0x42, 0x4a, 0x3d, 0x14, 0xe8, 0xe2, 0x3d, 0x9e, 0xdd, 0x35, 0xbd,
  0x33, 0x9d, 0x90, 0x3b, 0xc3, 0xcd, 0x73, 0x3d, 0xaf, 0x14, 0xa6, 0xbd,
  0xe5, 0x1d, 0xac, 0x3d, 0x9a, 0xff, 0x24, 0x3e, 0x1a, 0x7d, 0x7d, 0xbe,
  0x4c, 0xf5, 0x83, 0xbd, 0x0c, 0x48, 0x6b, 0x3f, 0x6e, 0xb3, 0x9a, 0x3d,
  0xd4, 0xdf, 0x3b, 0xbc, 0xa9, 0x5c, 0x3b, 0x3e, 0x8d, 0x4f, 0x4b, 0x3e,
  0x69, 0x3e, 0x49, 0x3d, 0x8f, 0x48, 0x26, 0x3e, 0xfe, 0x24, 0x95, 0x3d,
  0x21, 0x72, 0xb7, 0xba, 0x89, 0x74, 0xd7, 0xbc, 0xd8, 0xc6, 0x88, 0x3d,
  0x9a, 0x9e, 0x60, 0xbe, 0xcd, 0xd6, 0xa7, 0x3d, 0x78, 0x52, 0xe2, 0x3d,
  0xa0, 0xed, 0x87, 0xbe, 0x8a, 0x42, 0x97, 0xbd, 0x4e, 0xdf, 0xf8, 0x3e,
  0x68, 0xc3, 0xce, 0x3d, 0x8a, 0xa0, 0xb6, 0xbc, 0x16, 0x5e, 0xfd, 0xbd,
  0x91, 0x73, 0xbf, 0x3d, 0xac, 0x7f, 0xa9, 0x3c, 0x05, 0x19, 0x3d, 0x3e,
  0x1e, 0xd6, 0xa4, 0x3d, 0x83, 0xae, 0x94, 0xbd, 0x1c, 0xf8, 0x49, 0xbd,
  0x32, 0xc1, 0xe2, 0x3d, 0xaa, 0x6d, 0x6b, 0xbe, 0xff, 0x79, 0xc2, 0xbd,
  0xa3, 0x65, 0xd8, 0x3d, 0x10, 0x05, 0x1b, 0xbe, 0x32, 0x8c, 0x01, 0xbd,
  0xba, 0x31, 0x47, 0x3f, 0xe0, 0x35, 0x93, 0x3c, 0x86, 0xe2, 0x91, 0xbd,
  0xdc, 0x72, 0x75, 0xbe, 0x5e, 0xe4, 0xae, 0x3d, 0xe9, 0x4c, 0xb8, 0x3c,
  0x80, 0x54, 0xfe, 0x3d, 0x33, 0x20, 0xb7, 0x3d, 0x8c, 0xc0, 0x1c, 0xbd,
  0x5a, 0x01, 0x01, 0xbd, 0xea, 0x8a, 0x8a, 0x3d, 0xa5, 0x79, 0xa8, 0xbe,
  0x46, 0xd2, 0x12, 0x3b, 0xe4, 0xd4, 0x31, 0x3d, 0x92, 0x3b, 0xbf, 0xbd,
  0x41, 0x35, 0x91, 0xbd, 0xd1, 0xc2, 0x0b, 0x3f, 0x8e, 0x03, 0xb2, 0x3d,
  0xab, 0xfb, 0x82, 0xbd, 0x66, 0x18, 0xa6, 0xbc, 0x42, 0x41, 0xbc, 0x3d,
  0x56, 0x50, 0x09, 0xbb, 0xf1, 0xa4, 0x3b, 0x3e, 0x89, 0x49, 0x8a, 0x3c,
  0x83, 0x48, 0xe2, 0xb9, 0xcf, 0x07, 0xf6, 0xbc, 0xaf, 0xfc, 0x26, 0x3e,
  0xf1, 0xdd, 0x71, 0xbc, 0x15, 0xf0, 0xc3, 0xbd, 0x25, 0xb7, 0x31, 0xbb,
  0xa5, 0x73, 0x58, 0xbc, 0x1d, 0x56, 0x14, 0xbc, 0x59, 0x0f, 0xf5, 0x3e,
  0xe2, 0x77, 0x94, 0x3d, 0xbd, 0xe7, 0x8e, 0x3d, 0x86, 0x8a, 0xaf, 0xbe,
  0x45, 0xf9, 0x0c, 0x3e, 0xd1, 0x9b, 0x94, 0x3d, 0x68, 0x18, 0x45, 0x3e,
  0xdd, 0x5e, 0x7d, 0x3d, 0x4a, 0xba, 0x1b, 0x3d, 0x0e, 0xb4, 0x6a, 0x3c,
  0xb9, 0x51, 0x56, 0x3e, 0xb1, 0x93, 0x3b, 0x3d, 0x37, 0x16, 0xd6, 0x3d,
  0xfd, 0x16, 0x14, 0x3e, 0x6b, 0x93, 0xb5, 0x3b, 0xb9, 0x42, 0x03, 0xbd,
  0x5b, 0x83, 0x5c, 0x3f, 0x53, 0xd3, 0xa6, 0x3d, 0xee, 0xa3, 0xef, 0x3d,
  0xf1, 0x85, 0x0a, 0x3d, 0xe0, 0xc2, 0xa0, 0x3d, 0x4a, 0x08, 0x12, 0xbc,
  0xf4, 0xf1, 0x03, 0x3e, 0x1f, 0x28, 0x17, 0x3d, 0xe8, 0x36, 0x01, 0x3c,
  0x1b, 0x63, 0x65, 0x3b, 0xf3, 0x64, 0x19, 0x3e, 0xae, 0xcc, 0x18, 0x3e,
  0xfd, 0x20, 0x39, 0xbd, 0xe1, 0x02, 0xaf, 0xba, 0x05, 0xe4, 0x0f, 0x3c,
  0xc6, 0x7c, 0x0a, 0xbe, 0xf2, 0x94, 0xfa, 0x3e, 0xed, 0x01, 0x98, 0x3d,
  0xa4, 0x3c, 0x95, 0x3d, 0xbf, 0x9e, 0xda, 0x3d, 0x3c, 0xdf, 0x22, 0xbe,
  0x6c, 0x62, 0xbf, 0xbd, 0xe5, 0x3f, 0x4d, 0x3d, 0xf5, 0x6a, 0x5e, 0xbd,
  0x9f, 0x0d, 0x4f, 0xbe, 0xef, 0x87, 0x4d, 0xbd, 0xfd, 0xd1, 0xe3, 0x3c,
  0xa0, 0x54, 0x07, 0xbf, 0x83, 0x58, 0xac, 0x3e, 0x7f, 0xfc, 0xf2, 0x3c,
  0xcd, 0xa8, 0x43, 0x3c, 0x4b, 0xab, 0x72, 0xbe, 0xbb, 0xb8, 0x64, 0xbe,
  0x51, 0xac, 0x17, 0xbe, 0x65, 0xd0, 0xfd, 0xbd, 0x68, 0x39, 0xf5, 0xbe,
  0x03, 0xbe, 0xd6, 0xbd, 0x66, 0xeb, 0xda, 0x3d, 0x03, 0x88, 0x9b, 0x3b,
  0x23, 0xf8, 0xa5, 0x3e, 0xac, 0x02, 0x35, 0xbe, 0x9b, 0x2e, 0x56, 0xbd,
  0xff, 0x2d, 0x9a, 0x3d, 0x42, 0x7a, 0x5f, 0xbe, 0xee, 0x0f, 0xda, 0x3e,
  0x26, 0x6a, 0x89, 0x3e, 0x44, 0x10, 0xdc, 0xbe, 0x08, 0x7e, 0x51, 0x3d,
  0x68, 0xd1, 0x4c, 0xbd, 0xca, 0x16, 0x4a, 0xbe, 0x7c, 0x13, 0x8a, 0x3e,
  0xf0, 0x28, 0xb7, 0xbc, 0xfb, 0x16, 0x43, 0x3d, 0xb0, 0xa4, 0xdd, 0x3e,
  0x18, 0x21, 0x15, 0x3d, 0xca, 0xda, 0xc9, 0x3e, 0x0e, 0x41, 0x04, 0xbd,
  0x11, 0x16, 0x04, 0xbe, 0x07, 0xdd, 0x48, 0xbd, 0xf1, 0x61, 0xa6, 0xbd,
  0x8d, 0x94, 0xf1, 0xbd, 0x10, 0x4e, 0x9d, 0x3e, 0x71, 0xb3, 0xed, 0xbe,
  0xce, 0x03, 0x4c, 0x3e, 0x1e, 0x6b, 0xa9, 0xbd, 0x35, 0xce, 0x62, 0xbe,
  0xf9, 0x58, 0x22, 0x3e, 0x85, 0x27, 0x8c, 0x3d, 0x35, 0xcd, 0xd4, 0xbd,
  0x8f, 0xaf, 0xc8, 0x3e, 0x04, 0x5a, 0x27, 0xbd, 0xc6, 0x3b, 0xa4, 0x3e,
  0xb2, 0x85, 0xbc, 0x3c, 0xa9, 0xf4, 0xd1, 0xbd, 0xfd, 0xf2, 0xbb, 0x3d,
  0x1a, 0x15, 0x43, 0xbe, 0x12, 0xb7, 0xcc, 0xbe, 0x9d, 0xf1, 0x66, 0x3e,
  0x10, 0xcc, 0xf5, 0xbe, 0xd4, 0x96, 0x33, 0x3e, 0xd9, 0xd6, 0x3e, 0xbd,
  0xc7, 0xb7, 0x5a, 0xbe, 0x90, 0xe1, 0xd1, 0x3d, 0xad, 0x80, 0x41, 0xbe,
  0x2f, 0xb4, 0x0c, 0xbc, 0x04, 0xbb, 0xad, 0x3e, 0x02, 0x95, 0x2c, 0xbe,
  0x6c, 0x50, 0x15, 0x3e, 0xe5, 0x41, 0x6b, 0x3d, 0xd8, 0xaf, 0x76, 0xbd,
  0xf6, 0xd8, 0xba, 0x3d, 0xfb, 0x05, 0xb6, 0xbd, 0xb6, 0xd7, 0xcc, 0xbe,
  0x82, 0x7b, 0x87, 0x3e, 0xf0, 0x10, 0x6f, 0xbe, 0x0b, 0xac, 0x0f, 0x3c,
  0x0f, 0xf9, 0x1d, 0xbe, 0xae, 0xd8, 0xa4, 0x3d, 0x22, 0x71, 0x00, 0xbd,
  0x00, 0x70, 0x82, 0x3e, 0xdf, 0x3f, 0x27, 0xbe, 0xa1, 0x70, 0x45, 0x3e,
  0xab, 0x13, 0x95, 0xbd, 0x20, 0xed, 0x8a, 0x3c, 0x65, 0xe4, 0x1d, 0x3e,
  0x45, 0x11, 0x49, 0xbd, 0xb8, 0x9a, 0xd3, 0xbd, 0xc4, 0xa9, 0x82, 0xbd,
  0x80, 0x4c, 0x18, 0xbe, 0x55, 0x19, 0x36, 0x3e, 0x87, 0xcf, 0xb4, 0x3d,
  0x21, 0xd0, 0xd9, 0xbd, 0xca, 0xc3, 0x91, 0xbd, 0xb5, 0x7e, 0x70, 0x3d,
  0x9c, 0xb8, 0x89, 0xbd, 0x4d, 0xb7, 0x42, 0xbd, 0x10, 0xe0, 0x92, 0xbe,
  0x5c, 0xc1, 0x9a, 0x3b, 0x6a, 0x28, 0x30, 0x3d, 0x0f, 0x8d, 0x18, 0x3d,
  0x7e, 0x27, 0x22, 0x3e, 0xc2, 0x41, 0xa4, 0xbd, 0xe7, 0x1d, 0x0d, 0xbe,
  0xd4, 0xba, 0x4b, 0x3d, 0x65, 0xee, 0xa3, 0xbe, 0xfa, 0xc8, 0x3f, 0x3e,
  0x06, 0xba, 0x1e, 0xbc, 0x9e, 0x6b, 0x4d, 0xbd, 0x70, 0xdf, 0x4b, 0xbe,
  0x7f, 0x07, 0x94, 0x3b, 0x91, 0xeb, 0xa0, 0xbe, 0x49, 0xa8, 0xc2, 0x3c,
  0x37, 0x47, 0x00, 0xbe, 0x09, 0x2f, 0x66, 0xbe, 0xaa, 0xdd, 0xa6, 0x3c,
  0x84, 0x6d, 0xcd, 0x3c, 0x64, 0xc0, 0xbd, 0x3d, 0xa3, 0xcd, 0xa4, 0xbe,
  0x0e, 0xc1, 0x86, 0xb9, 0xf0, 0xe8, 0xde, 0xbd, 0xdf, 0x1b, 0x57, 0xbc,
  0xf9, 0xd4, 0x04, 0xbe, 0xd8, 0x56, 0x9d, 0x3d, 0xda, 0xd8, 0xb5, 0xbd,
  0x87, 0x49, 0x1d, 0x3e, 0x17, 0x2f, 0x43, 0xbe, 0xd0, 0x8e, 0x9e, 0xbd,
  0x93, 0xae, 0x5f, 0xbd, 0x71, 0x97, 0xc8, 0x3c, 0x07, 0xae, 0x17, 0xbe,
  0x90, 0x7a, 0x07, 0xbe, 0x5e, 0xa6, 0xd4, 0xbd, 0x9b, 0x70, 0x3a, 0xbd,
  0x84, 0x50, 0xb9, 0xbe, 0x10, 0xd9, 0x18, 0x3d, 0xd1, 0xd8, 0xba, 0xbd,
  0x34, 0x6c, 0x12, 0xbc, 0x25, 0xcb, 0x2f, 0xbe, 0x16, 0xae, 0x1d, 0x3e,
  0xca, 0x2e, 0xaf, 0xbd, 0x13, 0x6f, 0x7b, 0xbe, 0x3d, 0x55, 0xc4, 0xbd,
  0x16, 0xc1, 0x39, 0xbe, 0xb4, 0x14, 0x90, 0x3d, 0x6e, 0x78, 0x41, 0xbe,
  0x1e, 0x7c, 0x6c, 0xbd, 0xdc, 0xd1, 0xde, 0xbc, 0x57, 0xaf, 0x04, 0x3c,
  0x49, 0x60, 0xd7, 0x3d, 0x20, 0x0e, 0xf3, 0xbd, 0xaf, 0x3e, 0x1c, 0xbe,
  0xfb, 0x96, 0x21, 0x3e, 0x3d, 0xeb, 0x01, 0xbe, 0x35, 0xb7, 0x2d, 0x3e,
  0x7b, 0xcc, 0x3d, 0xbe, 0x40, 0x79, 0x11, 0xbd, 0x13, 0x95, 0x01, 0xbe,
  0x4d, 0xa7, 0xad, 0x3c, 0xc0, 0x68, 0xab, 0x3c, 0xd7, 0xf8, 0x3b, 0xbb,
  0xd9, 0x97, 0x00, 0xbd, 0xdb, 0x8a, 0x8f, 0xbb, 0xcb, 0x58, 0xc1, 0x3c,
  0xf8, 0x63, 0x21, 0x3d, 0xfa, 0xf4, 0xf4, 0x3d, 0xb4, 0x8e, 0x08, 0xbe,
  0xf3, 0x9e, 0x04, 0x3e, 0x4f, 0xaa, 0x87, 0xbd, 0xe6, 0x79, 0x28, 0x3e,
  0x01, 0x16, 0x0d, 0x3e, 0xbb, 0x96, 0x8a, 0xbc, 0xbc, 0xc0, 0x93, 0x3d,
  0x57, 0x72, 0x21, 0xbe, 0xc9, 0x1f, 0x53, 0xbe, 0x88, 0xa6, 0x61, 0xbd,
  0x34, 0x2c, 0x9f, 0xbd, 0xd1, 0xe2, 0x62, 0x3d, 0x81, 0x35, 0x45, 0xbe,
  0x3a, 0x72, 0x29, 0x3e, 0x23, 0xe1, 0x3e, 0xbe, 0x37, 0x88, 0x42, 0xbd,
  0x65, 0xba, 0x18, 0xbe, 0x95, 0x1c, 0x12, 0xbd, 0xe1, 0xf3, 0xb5, 0x3d,
  0x75, 0xa2, 0x09, 0x3d, 0x7d, 0x95, 0x14, 0xbe, 0x9a, 0x7e, 0xec, 0xbd,
  0xc2, 0x2f, 0x3b, 0xbe, 0x62, 0xbc, 0x3f, 0xbe, 0xb3, 0x7b, 0x2c, 0xbe,
  0xd9, 0x5b, 0x67, 0xbe, 0xdd, 0xb1, 0x50, 0xbe, 0x0b, 0x49, 0x3c, 0xbe,
  0x8f, 0x01, 0x27, 0xbe, 0xc4, 0x52, 0x61, 0x3d, 0x24, 0xe7, 0xe2, 0xbd,
  0xac, 0xcd, 0xb2, 0x3d, 0xd7, 0xb4, 0x75, 0xbe, 0xf4, 0x48, 0xba, 0xbd,
  0x3d, 0x50, 0xac, 0xbd, 0x09, 0x57, 0x9e, 0xbd, 0xf6, 0xe6, 0x31, 0x3e,
  0x61, 0x2b, 0xbf, 0x3d, 0xde, 0xff, 0x24, 0x3e, 0x8d, 0xcd, 0x21, 0xbc,
  0x87, 0xf2, 0x39, 0xbe, 0x3f, 0x91, 0xcf, 0x3c, 0x4b, 0xdb, 0x1c, 0x3d,
  0xa9, 0x6a, 0x82, 0xbe, 0x77, 0xb6, 0x84, 0xbe, 0xcc, 0x57, 0x21, 0xbe,
  0x81, 0xa6, 0x0c, 0xbe, 0xc9, 0xcb, 0x3e, 0xbe, 0x3b, 0x2c, 0x99, 0xbe,
  0x36, 0xde, 0x3b, 0x3e, 0xd3, 0x7b, 0xef, 0x3d, 0xc1, 0xb6, 0x14, 0xbe,
  0x94, 0x1a, 0x31, 0xbe, 0x74, 0x12, 0xd8, 0xbd, 0x1b, 0x2b, 0xa9, 0xbd,
  0xe6, 0xbc, 0x2c, 0xbd, 0x9c, 0x2e, 0x88, 0xbe, 0x7c, 0x06, 0x36, 0xbe,
  0x3d, 0x3c, 0x72, 0xbd, 0x4d, 0x3e, 0xbd, 0xbe, 0x20, 0x11, 0xcf, 0x3d,
  0xf0, 0x18, 0xa2, 0x3c, 0xa6, 0xd2, 0x1a, 0x3e, 0x5f, 0x08, 0x5b, 0xbe,
  0x0a, 0x25, 0x1a, 0x3c, 0x52, 0xb5, 0x02, 0x3e, 0x5e, 0xeb, 0x37, 0xbf,
  0xac, 0x27, 0x32, 0x3e, 0x10, 0xe5, 0xa6, 0xbd, 0xd9, 0x97, 0xf3, 0xba,
  0x62, 0xd8, 0xa4, 0xbe, 0xdc, 0xac, 0x37, 0x3f, 0x82, 0xf1, 0xd0, 0xbd,
  0xa5, 0x30, 0x52, 0xbe, 0x5a, 0x73, 0x2c, 0xbf, 0xeb, 0x5f, 0x5b, 0x3e,
  0xb1, 0x79, 0xd9, 0x3e, 0x79, 0x1e, 0xe9, 0xba, 0x8c, 0xd9, 0x69, 0x3e,
  0xdc, 0xc2, 0xf9, 0xbd, 0x81, 0x14, 0xd0, 0xbc, 0xac, 0x54, 0x2d, 0xbe,
  0x25, 0x25, 0xbf, 0xbe, 0x12, 0xe2, 0xbc, 0x3e, 0x7c, 0xbb, 0x03, 0x3f,
  0x20, 0xa2, 0x38, 0xbe, 0xaf, 0x06, 0x7e, 0xbd, 0x14, 0x7f, 0x5a, 0x3f,
  0x18, 0x72, 0x19, 0xbe, 0xfa, 0x29, 0x4d, 0x3e, 0x99, 0x67, 0x20, 0xbe,
  0x12, 0xdc, 0x4c, 0x3d, 0x03, 0x57, 0xd1, 0x3e, 0xaf, 0xa6, 0x08, 0xbe,
  0xa2, 0xb8, 0xc6, 0x3e, 0x35, 0xda, 0x41, 0x3e, 0x58, 0x8d, 0x4a, 0xbd,
  0x2a, 0xc4, 0x70, 0xbc, 0x2a, 0x80, 0xb1, 0xbe, 0x80, 0x97, 0xfe, 0xbd,
  0x78, 0xec, 0xc8, 0x3e, 0x0f, 0xa2, 0xad, 0xbe, 0xb0, 0x59, 0xe6, 0x3d,
  0x34, 0x8f, 0x35, 0x3f, 0x85, 0x35, 0x0f, 0xbe, 0x2b, 0xe7, 0x34, 0xbc,
  0x62, 0x6e, 0x5c, 0xbe, 0x2c, 0x0d, 0xbc, 0xbd, 0x50, 0x3c, 0xa9, 0x3e,
  0x2b, 0xf0, 0x83, 0xbe, 0xcb, 0x5c, 0xc3, 0x3e, 0xba, 0x16, 0x1c, 0x3d,
  0x02, 0xf2, 0x97, 0xbd, 0x15, 0x3e, 0x0a, 0xbe, 0xce, 0x69, 0xf3, 0xbe,
  0xee, 0x1d, 0x53, 0xbe, 0xa4, 0xf9, 0xbc, 0x3e, 0xf3, 0x18, 0x50, 0xbe,
  0x3e, 0xc3, 0x0a, 0xbd, 0x7d, 0x8e, 0x1b, 0x3f, 0x39, 0x76, 0xd4, 0xbd,
  0x2b, 0x0b, 0xae, 0x3c, 0x63, 0x2f, 0x2e, 0xbe, 0x1e, 0x04, 0x05, 0xbe,
  0xd2, 0xd8, 0x57, 0x3e, 0x0b, 0x83, 0x24, 0xbe, 0xde, 0x26, 0x14, 0x3e,
  0x5e, 0x66, 0x72, 0x3b, 0x31, 0x5c, 0x43, 0xbd, 0xe7, 0x7b, 0x7d, 0x3d,
  0xe0, 0x5e, 0x21, 0xbf, 0x59, 0x5c, 0x95, 0xbe, 0xd7, 0x38, 0xcd, 0x3e,
  0x7e, 0x13, 0x70, 0xbe, 0x9d, 0xff, 0x12, 0xbe, 0x4f, 0x26, 0x0b, 0x3f,
  0xfd, 0xcc, 0xed, 0xbd, 0xe1, 0x97, 0x2b, 0xbb, 0x6b, 0xb6, 0x83, 0xbd,
  0x42, 0xff, 0x76, 0xbc, 0xfd, 0xbf, 0xb0, 0x3e, 0x68, 0x00, 0x73, 0xbe,
  0x6d, 0x89, 0x49, 0x3e, 0x2a, 0x16, 0xc1, 0x3d, 0x9d, 0x2d, 0xc5, 0xbc,
  0xb4, 0x9e, 0x98, 0xbe, 0xc7, 0x8b, 0xd8, 0xbe, 0xc2, 0x74, 0x8c, 0xbe,
  0x26, 0x14, 0xc1, 0x3d, 0x48, 0x37, 0xce, 0x3d, 0xc3, 0xf2, 0xa5, 0xbd,
  0x15, 0xa2, 0x67, 0x3f, 0x28, 0xae, 0x8a, 0xbd, 0x44, 0xfe, 0x91, 0x3d,
  0x95, 0x99, 0x2b, 0xbe, 0x2d, 0x9a, 0x9b, 0x3c, 0x77, 0x3f, 0xf6, 0x3d,
  0x75, 0xc5, 0xca, 0xbd, 0xc6, 0x2e, 0xbf, 0x3b, 0xc5, 0x03, 0x22, 0x3e,
  0x90, 0x17, 0x27, 0xbe, 0x11, 0x23, 0xcb, 0xbe, 0x3d, 0xa7, 0x79, 0x3d,
  0xe4, 0x75, 0x07, 0xbe, 0xfd, 0xe2, 0x53, 0x3a, 0xfa, 0xee, 0xe6, 0x3c,
  0xef, 0xf8, 0x88, 0xbe, 0x36, 0xf8, 0x28, 0xbe, 0xec, 0x99, 0x16, 0x3d,
  0x26, 0xe2, 0x56, 0xbe, 0x6f, 0x2b, 0x2d, 0x3d, 0x21, 0xfe, 0x5d, 0x3e,
  0x4d, 0x05, 0xb1, 0x3e, 0x45, 0x51, 0xbd, 0xbd, 0x35, 0xa4, 0x52, 0xbe,
  0xe1, 0xb9, 0xa2, 0xbe, 0x5f, 0x4b, 0x3f, 0xbd, 0x99, 0xfc, 0xf5, 0x3d,
  0x25, 0x5c, 0x1a, 0xbe, 0x71, 0x72, 0xcd, 0xbe, 0x26, 0x97, 0xc0, 0x3e,
  0xd6, 0x81, 0x0f, 0xbd, 0x04, 0x1e, 0x34, 0xbc, 0x70, 0x02, 0xc0, 0xbb,
  0xee, 0x6b, 0xae, 0xbb, 0xec, 0x4c, 0x59, 0x3d, 0x9a, 0xd5, 0x0a, 0x3f,
  0xcd, 0x5b, 0x8c, 0x3e, 0xc2, 0x96, 0xf7, 0x3d, 0xaa, 0xe2, 0x92, 0x3d,
  0x9e, 0x35, 0x62, 0x3d, 0x12, 0x65, 0xa6, 0xbd, 0x89, 0xd2, 0x1a, 0xbd,
  0x90, 0x00, 0x36, 0x3e, 0x4f, 0x7c, 0xea, 0xbe, 0xce, 0xcf, 0xdf, 0xbd,
  0xd4, 0x0a, 0x1b, 0x3e, 0x9a, 0x6d, 0x22, 0xbc, 0xaf, 0x83, 0x7b, 0xbe,
  0xd6, 0xab, 0x2d, 0x3f, 0x6d, 0x8a, 0x39, 0x3e, 0xd0, 0xd0, 0x2a, 0xbe,
  0x30, 0x22, 0x13, 0x3d, 0x05, 0xed, 0x82, 0xbe, 0x4f, 0x65, 0xef, 0xbd,
  0x6d, 0xb5, 0x1d, 0xbe, 0xb9, 0x68, 0xb3, 0xbd, 0x5c, 0xa1, 0x77, 0xbe,
  0x17, 0x12, 0xde, 0xbd, 0xb2, 0xa4, 0x15, 0xbe, 0x17, 0xa7, 0xd2, 0xbe,
  0x24, 0x4f, 0x2c, 0xbe, 0xa0, 0xdb, 0xd4, 0xbd, 0x4e, 0x98, 0x99, 0xbc,
  0x19, 0xa2, 0x6f, 0xbe, 0x82, 0x31, 0xc7, 0xbd, 0x65, 0x80, 0xba, 0x3d,
  0x17, 0x10, 0xa8, 0xbe, 0x4d, 0xf1, 0xc0, 0xbe, 0x19, 0x14, 0x50, 0xbf,
  0x1d, 0x7d, 0xa1, 0xbe, 0x4e, 0x1e, 0x4f, 0xbe, 0x9f, 0x7e, 0xb0, 0xbe,
  0x05, 0x91, 0xa7, 0xbe, 0x12, 0x29, 0xe2, 0xbd, 0x58, 0x87, 0x0c, 0xbf,
  0x50, 0x8e, 0xe4, 0xbe, 0xb9, 0x8d, 0x88, 0xbe, 0xa4, 0x8f, 0x3b, 0xbd,
  0xa7, 0x36, 0x3b, 0xbe, 0x6b, 0x99, 0xb5, 0xbd, 0x08, 0x61, 0xa6, 0xbd,
  0x85, 0x93, 0x8c, 0xbe, 0xc4, 0x08, 0x54, 0xbe, 0xf7, 0x2d, 0xc9, 0xbe,
  0x01, 0x3d, 0x4e, 0xbe, 0xb8, 0x81, 0x66, 0xbd, 0x9e, 0xb9, 0x7b, 0x3c,
  0x95, 0xa0, 0x07, 0xbe, 0xe3, 0x58, 0x56, 0xbe, 0xc4, 0x14, 0xb4, 0xbd,
  0x96, 0x7f, 0x04, 0xbe, 0x92, 0x6a, 0x94, 0x3e, 0xc3, 0xd5, 0xcb, 0xbe,
  0x66, 0xe5, 0xb0, 0x3e, 0xdc, 0xd7, 0x97, 0xbd, 0xe9, 0x3b, 0x34, 0xbd,
  0xcd, 0xbb, 0x07, 0x3f, 0x8b, 0xbb, 0x9b, 0xbe, 0xc2, 0x3b, 0x1e, 0x3e,
  0x4c, 0x86, 0xa8, 0x3e, 0x26, 0x30, 0xa0, 0x3d, 0xad, 0x6c, 0x11, 0x3e,
  0xf2, 0xf3, 0x48, 0xbe, 0x44, 0x37, 0x08, 0xbe, 0x6a, 0xb6, 0xb6, 0xbe,
  0x3a, 0x42, 0x93, 0x3c, 0xff, 0xf8, 0x86, 0x3d, 0xc6, 0xfa, 0x60, 0x3e,
  0xd6, 0x1a, 0xae, 0xbe, 0xb8, 0x70, 0x4f, 0x3e, 0x8e, 0x0a, 0x39, 0x3d,
  0xcc, 0x0a, 0x2a, 0xbe, 0x34, 0xd4, 0x95, 0x3c, 0x94, 0x1c, 0x9f, 0x3d,
  0xc8, 0x21, 0x64, 0x3e, 0x55, 0x01, 0x90, 0x3e, 0xc3, 0x3e, 0xfa, 0x3d,
  0x56, 0xca, 0x5b, 0xbc, 0x0f, 0xeb, 0x5b, 0x3c, 0x1b, 0xc9, 0x02, 0xbc,
  0x7d, 0x19, 0xba, 0xbd, 0xf9, 0xa1, 0x5e, 0x3d, 0x7d, 0x55, 0x37, 0x3e,
  0xa8, 0x0a, 0x26, 0x3e, 0x49, 0xc4, 0x6c, 0xbe, 0x53, 0x6c, 0xe1, 0x3b,
  0x6b, 0x55, 0xcd, 0x3d, 0x36, 0xea, 0x00, 0xbe, 0xff, 0x3c, 0x6d, 0xbe,
  0x70, 0x03, 0x81, 0xbc, 0x03, 0x54, 0x83, 0x3e, 0x66, 0x78, 0x2c, 0x3e,
  0x6a, 0x7e, 0xbb, 0xbc, 0x89, 0x94, 0x09, 0xbe, 0xe0, 0x83, 0x94, 0x3e,
  0x19, 0x57, 0xb0, 0x3d, 0x0a, 0x73, 0xa6, 0x3d, 0x2c, 0x05, 0x81, 0xbd,
  0x8c, 0xf4, 0x58, 0xbe, 0xc3, 0xad, 0x8a, 0xbe, 0x4b, 0x89, 0x46, 0x3d,
  0xd5, 0x87, 0xb6, 0xbe, 0x9d, 0x0b, 0xa9, 0xbe, 0x98, 0x4d, 0xb9, 0xbe,
  0xc8, 0xc0, 0xa4, 0x3f, 0x8a, 0x0d, 0xa2, 0x3e, 0xcd, 0xdc, 0x94, 0xbc,
  0xb4, 0x3d, 0x09, 0xbf, 0x05, 0x4e, 0xcf, 0xbc, 0x6a, 0x8e, 0xde, 0xbd,
  0x44, 0x76, 0x88, 0x3e, 0x2a, 0x45, 0x3d, 0xbd, 0x39, 0x2a, 0x0a, 0xbe,
  0xb3, 0x6e, 0xbc, 0xbd, 0x6f, 0x25, 0xfe, 0x3d, 0x4e, 0x23, 0xca, 0x3e,
  0xb9, 0x96, 0xd2, 0x3c, 0xbf, 0xec, 0x9c, 0xbe, 0x85, 0xb6, 0xcc, 0x3d,
  0x0b, 0xfb, 0xed, 0xbe, 0xc4, 0x77, 0x97, 0x3f, 0xfc, 0x68, 0x65, 0x3e,
  0xf0, 0x88, 0x57, 0xbe, 0xf9, 0x96, 0x94, 0xbe, 0x4d, 0xaa, 0xdd, 0x3d,
  0xa6, 0x7b, 0xb2, 0xbe, 0x8e, 0x3b, 0xc3, 0x3e, 0x80, 0x85, 0xd2, 0xbd,
  0x42, 0x6f, 0x5c, 0xbe, 0xf0, 0xac, 0x1c, 0xbd, 0x85, 0x3d, 0x89, 0x3e,
  0xd1, 0xdc, 0x4b, 0x3e, 0x13, 0x41, 0x20, 0x3e, 0x3b, 0x84, 0x3d, 0x3b,
  0x88, 0x6e, 0x3c, 0xbc, 0x67, 0x58, 0x4c, 0xbf, 0xb3, 0x41, 0xb9, 0x3f,
  0x3b, 0xbc, 0xf4, 0x3d, 0x6d, 0x67, 0xde, 0x3d, 0x56, 0xea, 0x61, 0xbe,
  0x17, 0xf0, 0x5a, 0x3e, 0xe9, 0xe6, 0xea, 0xbe, 0x80, 0x09, 0xe3, 0x3d,
  0x8d, 0x6c, 0xde, 0xbd, 0xbd, 0x4d, 0xe0, 0xbd, 0x92, 0x70, 0xa5, 0xb9,
  0xf1, 0x95, 0x90, 0x3e, 0xd0, 0x63, 0x99, 0x3d, 0xd1, 0x99, 0xc4, 0x3d,
  0x47, 0xeb, 0xb6, 0xbe, 0x81, 0xd2, 0xef, 0xbb, 0x0c, 0xb5, 0x1d, 0xbf,
  0x05, 0x19, 0xa5, 0x3f, 0x7b, 0x5a, 0x84, 0x3e, 0xf7, 0xbd, 0x8d, 0xbc,
  0x91, 0xbe, 0x01, 0xbe, 0x0f, 0x50, 0x52, 0x3e, 0x47, 0x68, 0x9f, 0xbe,
  0x9a, 0x0a, 0xae, 0x3e, 0x16, 0x69, 0xba, 0x3c, 0x01, 0x00, 0x49, 0xbe,
  0x8f, 0x77, 0x50, 0xbd, 0xec, 0x85, 0x6e, 0x3e, 0x88, 0x56, 0x0c, 0xbf,
  0x23, 0x5b, 0xeb, 0x3c, 0xdc, 0xe1, 0x0b, 0xbf, 0x0e, 0xd0, 0xcb, 0x3d,
  0x63, 0x5b, 0xfa, 0xbe, 0x22, 0xa6, 0xed, 0x3f, 0x23, 0x98, 0x1a, 0x3e,
  0x82, 0x24, 0x13, 0xbe, 0x54, 0x18, 0xe6, 0xbe, 0x6c, 0xf3, 0x54, 0x3b,
  0x77, 0x77, 0xcc, 0xbe, 0x14, 0x7f, 0xad, 0x3e, 0x18, 0x58, 0x70, 0x3c,
  0xb5, 0xf0, 0x85, 0x3b, 0x66, 0x54, 0x5c, 0xbc, 0x2e, 0x92, 0x22, 0x3e,
  0xd7, 0xb8, 0x58, 0xbe, 0x95, 0xb2, 0xd0, 0x3e, 0xdd, 0x4c, 0xe9, 0xbe,
  0xa0, 0xab, 0x29, 0x3b, 0x2d, 0x78, 0xdc, 0xbe, 0xa2, 0x7b, 0xdb, 0x3f,
  0xb7, 0x8c, 0x92, 0x3e, 0x34, 0xd2, 0xee, 0x3d, 0xd0, 0xc5, 0xaa, 0xbe,
  0x35, 0xa7, 0x84, 0xbc, 0x2b, 0xd4, 0xa7, 0xbe, 0x79, 0x50, 0x8e, 0x3e,
  0x60, 0x71, 0x2c, 0x3d, 0x39, 0x83, 0x75, 0xbd, 0x0b, 0xb0, 0x10, 0x3d,
  0x3f, 0x53, 0x9e, 0x3e, 0x69, 0xc9, 0x45, 0xbe, 0x88, 0xdd, 0x9a, 0x3b,
  0x02, 0xc0, 0x2e, 0xbe, 0xb0, 0xf4, 0x31, 0xbe, 0xd6, 0xbb, 0xcd, 0x3c,
  0x2d, 0x46, 0x79, 0x3f, 0xea, 0xbc, 0xab, 0x3d, 0xdd, 0xaf, 0xe5, 0x3d,
  0x0d, 0xd5, 0x2e, 0xbe, 0xf9, 0x22, 0x42, 0xbe, 0x5a, 0x0b, 0xfe, 0x3d,
  0x37, 0x14, 0x37, 0xbe, 0x25, 0x9f, 0xf6, 0xbd, 0x0f, 0xe3, 0xff, 0xbb,
  0xc0, 0x85, 0xab, 0xbd, 0x37, 0x6c, 0xe9, 0x3d, 0x70, 0xd5, 0x34, 0xbe,
  0x0a, 0x10, 0x19, 0x3c, 0x59, 0xd8, 0xf7, 0x3c, 0x72, 0x67, 0x40, 0x3e,
  0xe0, 0x47, 0x71, 0x3d, 0x0a, 0xde, 0xae, 0xbc, 0xed, 0x2b, 0x9c, 0xbd,
  0xd6, 0x3a, 0x1f, 0xbe, 0x2f, 0xcd, 0x29, 0x3e, 0xce, 0x82, 0xd1, 0xbd,
  0x6d, 0xae, 0x8e, 0xbe, 0x2d, 0x1d, 0x68, 0x3d, 0x76, 0x70, 0xfd, 0x3d,
  0x3f, 0x78, 0x3d, 0xbe, 0xd7, 0x7c, 0xc6, 0xbd, 0x48, 0xce, 0x46, 0xbe,
  0xd6, 0x33, 0x48, 0xbe, 0x65, 0x4a, 0x19, 0x3e, 0xb2, 0x56, 0x34, 0xbe,
  0x03, 0x74, 0x38, 0x3e, 0xdd, 0xea, 0x09, 0x3e, 0xbf, 0x45, 0x6c, 0x3d,
  0x59, 0xc2, 0x11, 0xbd, 0x26, 0xd5, 0x0e, 0xbd, 0x2e, 0xf4, 0x34, 0x3e,
  0x30, 0x31, 0x1e, 0xbe, 0xa0, 0x88, 0x6b, 0xbe, 0xc7, 0x64, 0xf0, 0xbd,
  0x28, 0x48, 0x0c, 0x3d, 0x6e, 0x1e, 0xbe, 0x3d, 0x4a, 0x9a, 0x85, 0xbe,
  0x2d, 0x82, 0x13, 0xbe, 0x89, 0x3b, 0x18, 0xbe, 0x2c, 0x65, 0x47, 0x3d,
  0x8c, 0xa8, 0xc9, 0x3d, 0x2b, 0x4a, 0x21, 0x3e, 0xf6, 0x4c, 0x55, 0xbd,
  0x4b, 0x07, 0xa3, 0xbd, 0xc5, 0xd6, 0xab, 0x3d, 0xf4, 0x1e, 0xbb, 0x3d,
  0xcc, 0x72, 0xa3, 0x3c, 0xe1, 0x7a, 0x1e, 0x3d, 0xd9, 0x57, 0xbf, 0x3d,
  0x5e, 0x63, 0xb2, 0x3d, 0x48, 0x3d, 0x48, 0xbe, 0x1b, 0xc8, 0xfe, 0xbc,
  0x74, 0x8d, 0xab, 0xbe, 0xae, 0x6e, 0x0c, 0x3e, 0x78, 0xc0, 0xb2, 0xbd,
  0x69, 0x88, 0x19, 0x3d, 0x9a, 0xcb, 0xd0, 0xbd, 0xbe, 0x28, 0x41, 0x3e,
  0xe2, 0xe2, 0x09, 0x3e, 0x46, 0x44, 0x0e, 0xbe, 0xdc, 0x48, 0x2d, 0xbb,
  0x33, 0xb0, 0x26, 0xbe, 0xbc, 0x1e, 0x58, 0x3e, 0x2d, 0xb2, 0x40, 0xbe,
  0x99, 0x01, 0x08, 0xbe, 0xde, 0x13, 0xa2, 0x3d, 0x92, 0xe2, 0x2a, 0x3c,
  0xf6, 0xee, 0x9f, 0xbd, 0x64, 0x7b, 0xd4, 0xbe, 0x61, 0xbd, 0x3c, 0xbd,
  0x9c, 0x2f, 0xef, 0xbd, 0x2d, 0xa1, 0x58, 0xbe, 0x54, 0xdf, 0x59, 0x3e,
  0xed, 0x12, 0x4f, 0x3e, 0x7e, 0x15, 0x1a, 0x3e, 0xb5, 0xd8, 0x6c, 0x3d,
  0x3e, 0x2b, 0x84, 0x3c, 0xeb, 0xd4, 0x85, 0x3c, 0x44, 0x85, 0x9e, 0xbb,
  0xd7, 0xae, 0xef, 0x3c, 0xef, 0xe2, 0x21, 0xbd, 0xd8, 0xa0, 0x9e, 0x3c,
  0xa5, 0x41, 0xe0, 0xbc, 0x86, 0x8a, 0xdb, 0xbd, 0x81, 0x08, 0x52, 0xbe,
  0x07, 0x25, 0x47, 0xbd, 0x4d, 0xe5, 0x6a, 0x3d, 0x01, 0x64, 0x85, 0x3d,
  0x24, 0x29, 0x91, 0x3c, 0xb7, 0x9d, 0x4b, 0x3e, 0x6f, 0xdc, 0xea, 0x3d,
  0x77, 0x1c, 0x3d, 0xbe, 0x7d, 0x26, 0x32, 0xbb, 0x6b, 0x3c, 0xd6, 0xbc,
  0x7d, 0xe8, 0x98, 0xbc, 0x83, 0xaa, 0xc0, 0xbd, 0xc9, 0x72, 0xae, 0xbb,
  0xbc, 0x99, 0x12, 0x3e, 0xe0, 0x4f, 0x07, 0xbe, 0xd5, 0x71, 0x17, 0x3c,
  0xa5, 0x4e, 0xa9, 0xbe, 0x3f, 0xba, 0x9b, 0x3d, 0x10, 0xb2, 0x87, 0xbd,
  0x88, 0x38, 0x74, 0x3e, 0x6b, 0xac, 0x0a, 0x3d, 0x27, 0x01, 0xbe, 0xbc,
  0x2e, 0xe5, 0xa2, 0x3e, 0x8f, 0xcf, 0x90, 0x3d, 0xe4, 0xe3, 0x81, 0xbd,
  0xee, 0x8a, 0xff, 0xbd, 0x7d, 0xa7, 0x94, 0x3d, 0x8a, 0x46, 0x21, 0x3e,
  0xb3, 0xe0, 0x8f, 0x3d, 0xa5, 0x0b, 0x6e, 0xbd, 0xbc, 0x12, 0xdb, 0xbd,
  0x36, 0xa2, 0xd2, 0xbc, 0x14, 0xea, 0xce, 0x3c, 0x58, 0x0b, 0x9b, 0xbc,
  0xf7, 0x46, 0xd6, 0x3d, 0x1b, 0xfd, 0x24, 0xbe, 0x3e, 0x62, 0x96, 0x3e,
  0x47, 0xfb, 0x3e, 0x3d, 0x6b, 0xd4, 0xb2, 0x3d, 0xf7, 0xdb, 0x01, 0x3d,
  0xeb, 0xcf, 0xc9, 0xbd, 0x69, 0xf9, 0x2d, 0xbc, 0x5a, 0x5d, 0xb1, 0x3e,
  0xc2, 0x6e, 0x65, 0x3d, 0x94, 0x90, 0xcd, 0xbd, 0x30, 0xc4, 0x26, 0xbe,
  0xf8, 0xe7, 0xc1, 0xbd, 0xf2, 0xc1, 0x2f, 0xbd, 0x7e, 0x8d, 0xcf, 0x3c,
  0x5a, 0x38, 0xef, 0xbd, 0x31, 0xc8, 0x2e, 0xbe, 0xc6, 0x89, 0x77, 0xbc,
  0x18, 0x33, 0xf2, 0xbd, 0x4e, 0x20, 0x4a, 0x3e, 0xd9, 0x98, 0x43, 0x3d,
  0x8d, 0xda, 0xb2, 0x3e, 0x75, 0x63, 0x4f, 0xbd, 0xf8, 0xae, 0xda, 0xbd,
  0x60, 0x6a, 0xec, 0x3c, 0xdc, 0x20, 0x69, 0xbe, 0xe6, 0xce, 0x60, 0xbb,
  0xd7, 0xe1, 0x3b, 0xbe, 0xf7, 0x94, 0xe6, 0xbe, 0x03, 0x7e, 0x13, 0xbd,
  0xcb, 0x86, 0xc3, 0xbb, 0xd2, 0xc1, 0x0e, 0xbd, 0xe8, 0x92, 0xaf, 0xbd,
  0xdf, 0xcc, 0x87, 0x3d, 0x42, 0x7b, 0x2c, 0xbe, 0x6e, 0x5c, 0xcc, 0x3d,
  0x6d, 0xd1, 0xe2, 0x3d, 0x9f, 0xf7, 0x37, 0x3f, 0x57, 0x6d, 0x8d, 0x3d,
  0xbe, 0x15, 0x8f, 0xbd, 0xb2, 0x7d, 0xf2, 0x3d, 0x7b, 0xd1, 0xab, 0xbe,
  0x77, 0xbc, 0xf5, 0xbc, 0x29, 0x02, 0x13, 0x3d, 0x11, 0x91, 0x7e, 0xbe,
  0x46, 0xcc, 0x47, 0xbd, 0x6b, 0x30, 0x9f, 0xbb, 0x40, 0x64, 0xb7, 0xbd,
  0x4f, 0x19, 0x8e, 0x3d, 0xf2, 0x5f, 0x31, 0xbc, 0xaa, 0x3a, 0x4d, 0xbe,
  0x06, 0x33, 0x5f, 0xbc, 0x07, 0x10, 0xf4, 0x3d, 0xb8, 0x04, 0xf9, 0x3e,
  0x1f, 0xdf, 0xab, 0xbd, 0x1d, 0x72, 0x4e, 0x3b, 0x3e, 0xac, 0xd4, 0x3c,
  0xd4, 0x21, 0xdf, 0xbd, 0xa5, 0x9c, 0xf0, 0xbd, 0x39, 0x70, 0x00, 0xbc,
  0x4d, 0x5a, 0x48, 0xbe, 0x1b, 0x7a, 0x4f, 0xbd, 0x17, 0x88, 0x58, 0xbc,
  0xab, 0xbe, 0x8b, 0x3d, 0xdd, 0x2e, 0xa5, 0x3e, 0xe9, 0x93, 0xe1, 0x3c,
  0x2e, 0x6b, 0xaa, 0xbb, 0x48, 0x49, 0xd5, 0x3d, 0x7f, 0xf6, 0x4c, 0x3d,
  0x33, 0x3c, 0xe2, 0x3e, 0xab, 0xf7, 0x7f, 0xbd, 0xe9, 0x5c, 0xc5, 0xb9,
  0xe1, 0xa9, 0xc5, 0x3e, 0x0a, 0xc1, 0x09, 0xbb, 0x71, 0x25, 0x56, 0xbd,
  0xa9, 0x01, 0xa3, 0xbd, 0x32, 0xfc, 0x66, 0xbe, 0xf4, 0xae, 0x3a, 0xbe,
  0x7f, 0xee, 0x0e, 0x3c, 0xab, 0x24, 0x84, 0x3c, 0x47, 0x2a, 0x38, 0x3e,
  0x47, 0xa0, 0xd7, 0x3c, 0x35, 0xdd, 0x6b, 0x3e, 0xf9, 0x7c, 0xd3, 0xbc,
  0xa2, 0x34, 0x1a, 0x3d, 0x8c, 0x77, 0x02, 0x3f, 0x2a, 0x06, 0xcc, 0xbc,
  0xe3, 0x60, 0x69, 0xbd, 0xe5, 0x30, 0x03, 0x3f, 0xa0, 0xd8, 0x1f, 0xbd,
  0x75, 0x57, 0xa6, 0xbd, 0x96, 0x0a, 0x80, 0x3d, 0x77, 0x69, 0xc7, 0xbd,
  0x06, 0xdb, 0xf0, 0xbd, 0x80, 0x35, 0x67, 0x3d, 0xe0, 0x68, 0x69, 0x3d,
  0x10, 0xe9, 0xe4, 0x3d, 0xf9, 0x26, 0xc7, 0x3d, 0x37, 0x2a, 0xc7, 0x3c,
  0x47, 0xa3, 0x9e, 0xba, 0xf3, 0x9b, 0x09, 0x3e, 0xf8, 0xbb, 0xa5, 0xbe,
  0x5c, 0xf9, 0xbe, 0x38, 0x30, 0xa4, 0xa5, 0x3c, 0x90, 0xec, 0x1a, 0x3e,
  0x1f, 0x50, 0x8c, 0xbe, 0xe0, 0xa0, 0xd4, 0xbd, 0x36, 0x85, 0x6b, 0xbd,
  0x64, 0x8d, 0x3b, 0x3c, 0xca, 0xb4, 0x80, 0xbe, 0x47, 0xba, 0x1a, 0xbe,
  0xb7, 0xaf, 0x84, 0xbe, 0x12, 0xa9, 0x2f, 0xbe, 0xf6, 0xc8, 0x66, 0x3d,
  0x9a, 0xaa, 0x93, 0xbe, 0x0c, 0xc3, 0xe9, 0xbd, 0x3d, 0x99, 0xf3, 0xbd,
  0xdf, 0x06, 0x54, 0x3f, 0x46, 0x6d, 0xd8, 0xbd, 0xb9, 0xd0, 0x21, 0x3c,
  0xea, 0x8f, 0xb4, 0x3e, 0xf2, 0x45, 0x28, 0xbd, 0x3b, 0xb6, 0x83, 0xbe,
  0x03, 0xb9, 0x44, 0x3d, 0xa1, 0x01, 0x48, 0xbe, 0x00, 0xe7, 0x7e, 0x3d,
  0x87, 0x71, 0x65, 0xbe, 0x77, 0x5b, 0x58, 0xbd, 0x21, 0x21, 0x92, 0xbd,
  0x79, 0x67, 0x32, 0x3d, 0xc3, 0x65, 0x63, 0xbd, 0xb5, 0xf8, 0xd7, 0x3d,
  0xed, 0x59, 0x43, 0x3d, 0x52, 0x5e, 0x62, 0x3f, 0xde, 0xf8, 0x71, 0xbe,
  0x8c, 0x2a, 0x46, 0xbe, 0xde, 0xf6, 0xa0, 0x3e, 0xf0, 0x9d, 0x0b, 0xbe,
  0xa4, 0xdf, 0x60, 0xbd, 0xe0, 0x7f, 0x8c, 0xbd, 0xb0, 0x02, 0xdf, 0x3d,
  0xd4, 0xad, 0x88, 0xbe, 0x3a, 0xf4, 0x6a, 0xbe, 0xb6, 0x7f, 0x32, 0xbd,
  0xd4, 0x14, 0x8f, 0x3d, 0x24, 0x57, 0x3e, 0x3e, 0x8a, 0x02, 0xaf, 0x3d,
  0xa2, 0x86, 0x9f, 0x3c, 0x84, 0x7c, 0x7b, 0xbc, 0x04, 0x1a, 0x5a, 0x3f,
  0x7a, 0x26, 0x38, 0xbb, 0x07, 0x9d, 0x5b, 0x3d, 0x97, 0x88, 0xe1, 0x3e,
  0x07, 0xee, 0xd2, 0xbc, 0x72, 0x6a, 0xf2, 0x3d, 0xf2, 0x41, 0x6f, 0xbe,
  0xb7, 0x68, 0x87, 0xbe, 0x3f, 0x95, 0xd6, 0x3d, 0x30, 0xe4, 0x7c, 0xbe,
  0x99, 0x9e, 0x23, 0x3e, 0xd9, 0xb8, 0x49, 0xbe, 0x21, 0xd3, 0x4e, 0x3e,
  0x2c, 0x3c, 0x33, 0xbe, 0x7b, 0xae, 0xc6, 0xbb, 0x84, 0x5e, 0x50, 0xbc,
  0xe4, 0x38, 0x2f, 0x3f, 0x1b, 0x39, 0x50, 0xbe, 0x77, 0xd8, 0x5c, 0xbe,
  0x06, 0x79, 0x00, 0x3f, 0x73, 0x23, 0x95, 0x3d, 0xfc, 0xff, 0x81, 0xbe,
  0xc0, 0xc1, 0xa7, 0xbd, 0x78, 0xea, 0x88, 0x3c, 0xad, 0xcc, 0x0c, 0xbe,
  0x54, 0x80, 0x25, 0xbe, 0x4f, 0xa9, 0x02, 0x3d, 0xfd, 0x1a, 0x4f, 0xbc,
  0x68, 0xf0, 0x64, 0x3e, 0xf4, 0x9c, 0xde, 0xbd, 0xfd, 0xa4, 0xa6, 0xbd,
  0xb3, 0x7c, 0xc0, 0x3d, 0x1c, 0xef, 0x4f, 0x3f, 0x26, 0x44, 0x04, 0xbe,
  0x59, 0x1f, 0xba, 0xbd, 0xe9, 0x0f, 0xe2, 0x3e, 0xa4, 0xf2, 0x01, 0xbe,
  0x27, 0xf9, 0xf1, 0x3d, 0xd8, 0x7c, 0xb0, 0x3d, 0x5b, 0xbc, 0xde, 0x3c,
  0x16, 0xa3, 0x0d, 0xbe, 0xb9, 0x3b, 0x8c, 0xbe, 0x1c, 0xa7, 0xb5, 0xbd,
  0x89, 0x53, 0x3d, 0x3e, 0xcf, 0xaf, 0x94, 0x3e, 0x1e, 0x34, 0x50, 0x3d,
  0x9c, 0x2e, 0x1e, 0x3d, 0xfd, 0xa0, 0xc8, 0x3d, 0xec, 0x17, 0x4d, 0x3f,
  0x69, 0x7b, 0x33, 0xbd, 0x3f, 0x72, 0x5a, 0xbe, 0x38, 0x0a, 0x38, 0xbb,
  0xf0, 0xf1, 0x4d, 0xbe, 0x53, 0x00, 0x3c, 0xbe, 0xb7, 0xa0, 0xe8, 0xbc,
  0x51, 0x82, 0x74, 0xbe, 0xda, 0x47, 0xd6, 0xbd, 0x98, 0x2d, 0xaf, 0xbe,
  0x65, 0x7f, 0x2b, 0xbe, 0xf6, 0xfc, 0x99, 0x3d, 0xee, 0x67, 0x32, 0x3e,
  0xe2, 0xaa, 0x28, 0x3d, 0xb2, 0x45, 0xb7, 0xbc, 0x3d, 0xb3, 0xdc, 0x3c,
  0x54, 0xf4, 0x12, 0x3f, 0x7c, 0xde, 0x8b, 0xbe, 0xd9, 0x43, 0x78, 0xbe,
  0xb4, 0x01, 0x7c, 0x3d, 0x55, 0xb4, 0xa9, 0x3e, 0xcc, 0x5d, 0x0d, 0x3e,
  0x5b, 0xe8, 0xc6, 0xbe, 0xfd, 0x90, 0x90, 0x3d, 0x7c, 0xdc, 0x99, 0xbe,
  0x45, 0x54, 0x5a, 0xbc, 0x8b, 0xd2, 0x13, 0x3e, 0x67, 0xf7, 0xc2, 0x3e,
  0xd8, 0xcb, 0x82, 0xbe, 0x04, 0x4d, 0xbb, 0x3e, 0xfe, 0x0d, 0x3e, 0x3c,
  0xdd, 0x27, 0x2e, 0xbe, 0x5e, 0x0b, 0x04, 0xbd, 0x11, 0x11, 0x5e, 0x3d,
  0x13, 0x9a, 0x35, 0xbe, 0x18, 0x9e, 0x1c, 0x3e, 0x39, 0xbc, 0xa5, 0x3e,
  0xa2, 0xf3, 0x2d, 0x3d, 0xf6, 0x0e, 0xad, 0xbc, 0x03, 0x74, 0xa9, 0x3d,
  0xa4, 0xc6, 0xbc, 0xbd, 0x0e, 0x8e, 0xaf, 0xbd, 0xc5, 0xa1, 0xb1, 0x3d,
  0x8b, 0xf9, 0xb4, 0xbe, 0xf5, 0x7b, 0x1d, 0xbe, 0x75, 0x69, 0xfc, 0x3d,
  0xc0, 0x18, 0x6e, 0xbd, 0x54, 0x12, 0x7c, 0xbe, 0xf3, 0x6b, 0x92, 0xbd,
  0xee, 0x87, 0x09, 0x3d, 0x9e, 0x0e, 0x61, 0xbe, 0x63, 0xda, 0x0d, 0x3e,
  0xc7, 0xa0, 0x86, 0xbd, 0xfa, 0xf7, 0xc0, 0xbc, 0x50, 0xff, 0x9e, 0xbe,
  0x8f, 0xf2, 0x18, 0xbc, 0xdd, 0x77, 0x83, 0xbe, 0xea, 0x17, 0xc3, 0xbd,
  0xae, 0xee, 0x8c, 0xbd, 0x9b, 0x18, 0x82, 0xbe, 0x27, 0x0f, 0x9a, 0x3d,
  0xf1, 0xa8, 0x56, 0x3d, 0xa1, 0x44, 0x90, 0xbc, 0x31, 0x44, 0xa5, 0xbc,
  0xa7, 0xac, 0x6f, 0x3c, 0xb5, 0xea, 0xb0, 0x3d, 0x52, 0xed, 0x6b, 0xbe,
  0x57, 0x00, 0x49, 0x3d, 0x2a, 0x2e, 0xe6, 0xbe, 0xde, 0x7f, 0x76, 0xbe,
  0xd7, 0x71, 0xd4, 0x3c, 0xdf, 0x45, 0x38, 0xbe, 0x2b, 0x5a, 0xbc, 0xbe,
  0xc8, 0xe2, 0x8b, 0xbd, 0xd6, 0x69, 0xab, 0xbe, 0xa5, 0x6f, 0x51, 0xbd,
  0x5e, 0x4c, 0x72, 0xbe, 0xf9, 0x6d, 0x1f, 0xbd, 0x23, 0xb5, 0xcf, 0xbd,
  0x1c, 0x1f, 0x85, 0xbd, 0xfd, 0xee, 0xb1, 0xbd, 0x91, 0x84, 0x09, 0xbf,
  0x03, 0x62, 0x13, 0xbe, 0x00, 0xdf, 0xc1, 0xbe, 0x78, 0x97, 0xb3, 0xbe,
  0x1b, 0xb6, 0xc4, 0x3d, 0xd9, 0xb7, 0x8f, 0x3d, 0xcf, 0x0f, 0x2f, 0xbe,
  0xb7, 0xe6, 0x0f, 0xbf, 0xae, 0x68, 0x59, 0xbd, 0xe2, 0x53, 0x02, 0x3e,
  0xa4, 0x6a, 0x3c, 0x3e, 0x5d, 0x01, 0x83, 0xbd, 0x00, 0xb4, 0x46, 0x3e,
  0x5f, 0xb7, 0x41, 0xbd, 0x7d, 0xe8, 0x39, 0xbd, 0x87, 0xa7, 0xeb, 0x3c,
  0xc8, 0x27, 0x7f, 0xbe, 0x97, 0xf5, 0xda, 0x3b, 0x2d, 0xfc, 0x6a, 0x3e,
  0xdb, 0xef, 0x76, 0x3e, 0x8c, 0xfb, 0x1f, 0x3e, 0x86, 0x1d, 0xf9, 0xbd,
  0x8c, 0xd1, 0xc8, 0xbd, 0xc3, 0x10, 0xf8, 0xbd, 0x05, 0x4a, 0xae, 0xbd,
  0x30, 0x22, 0x2e, 0x3e, 0x92, 0x92, 0x46, 0x3e, 0x21, 0xec, 0x2e, 0xbe,
  0xf1, 0x70, 0x30, 0x3e, 0x4d, 0xbe, 0xcb, 0xbd, 0x60, 0x3e, 0x94, 0xbc,
  0x29, 0xd3, 0x18, 0xbe, 0xd3, 0x52, 0x28, 0xbe, 0xb5, 0x9f, 0x41, 0x3d,
  0xc5, 0x8a, 0x8e, 0x3e, 0x1c, 0x63, 0x57, 0x3e, 0x5f, 0xa1, 0x14, 0x3c,
  0x3f, 0x0a, 0xb5, 0x3c, 0x2f, 0x5b, 0x68, 0xbd, 0xa0, 0xfa, 0xda, 0xbd,
  0xfa, 0xd5, 0x99, 0xbc, 0x22, 0x5e, 0x32, 0x3e, 0x96, 0x27, 0x6b, 0x3e,
  0xd3, 0x5e, 0x96, 0xbd, 0xea, 0xc5, 0x29, 0x3c, 0xfd, 0xfc, 0x02, 0xbc,
  0x7a, 0x37, 0x29, 0xbc, 0xd3, 0xbe, 0x09, 0x3e, 0x26, 0x3a, 0x14, 0xbe,
  0x4c, 0xde, 0x3a, 0x3e, 0x33, 0x99, 0x03, 0x3e, 0xf9, 0x53, 0x52, 0xbd,
  0xe0, 0xa3, 0x92, 0xbd, 0x8e, 0x05, 0x85, 0x3d, 0xf5, 0xc2, 0x7e, 0xbe,
  0x9e, 0x14, 0x88, 0x3d, 0x54, 0x54, 0xe4, 0xbe, 0x4c, 0x74, 0x27, 0xbe,
  0x56, 0x9c, 0xae, 0xbd, 0x83, 0x84, 0xf2, 0xbd, 0xf5, 0xe5, 0x31, 0x3d,
  0x4c, 0xa5, 0xe8, 0xbd, 0x2b, 0x77, 0x88, 0x3d, 0xaa, 0xd1, 0xf0, 0x3f,
  0x43, 0x71, 0x85, 0xbd, 0x35, 0xc4, 0xef, 0xbd, 0x21, 0x98, 0x93, 0x3d,
  0xd9, 0xf1, 0x54, 0xbe, 0x05, 0x46, 0x94, 0xbb, 0xc4, 0x5d, 0x4a, 0x3c,
  0xc7, 0xa5, 0x5d, 0x3d, 0x27, 0xa0, 0x99, 0xbd, 0xfb, 0x39, 0x90, 0xbe,
  0x70, 0x08, 0x58, 0x3c, 0xd4, 0x99, 0xff, 0xbd, 0xb2, 0x2d, 0x5e, 0x3e,
  0xde, 0x1c, 0x06, 0xbe, 0x63, 0x92, 0xd7, 0x3d, 0xe3, 0x90, 0x26, 0xbe,
  0x45, 0x00, 0x01, 0x40, 0x27, 0x38, 0x30, 0xbe, 0x93, 0xb3, 0x91, 0xbd,
  0x84, 0x17, 0x6c, 0x3f, 0x9b, 0x73, 0x69, 0xbe, 0x7b, 0xfe, 0xad, 0x3c,
  0x68, 0xee, 0x0a, 0xbe, 0x1e, 0x07, 0x94, 0xbe, 0xa0, 0xe2, 0x14, 0xbe,
  0x2a, 0x15, 0xb7, 0xbe, 0x36, 0x99, 0xd1, 0x3c, 0xaa, 0xf6, 0x44, 0x3d,
  0xb5, 0x70, 0xd2, 0x3d, 0xa9, 0xd9, 0x9b, 0x3c, 0x07, 0x2b, 0x74, 0xbe,
  0x7e, 0x59, 0xb3, 0x3d, 0x4f, 0xe2, 0xf0, 0x3f, 0x74, 0x6d, 0x4d, 0xbd,
  0xa2, 0x74, 0xfd, 0xbd, 0x39, 0x4d, 0x4f, 0x3f, 0x6d, 0x36, 0xb1, 0xbc,
  0x5d, 0xd6, 0x53, 0xbe, 0xd3, 0x2a, 0x5c, 0xbd, 0x4d, 0xe8, 0x4e, 0xbe,
  0xc9, 0x79, 0x59, 0x3c, 0x32, 0x03, 0x45, 0xbe, 0xfb, 0xdd, 0x4c, 0xbe,
  0xa6, 0x23, 0xfb, 0x3d, 0x6e, 0xe5, 0x72, 0xbe, 0x6a, 0xc2, 0xf0, 0xbd,
  0xc3, 0xe2, 0xf6, 0x3d, 0x05, 0xd5, 0x04, 0xbd, 0x9e, 0x70, 0x04, 0x40,
  0x77, 0x7f, 0x04, 0x3e, 0x39, 0xa5, 0xc4, 0xbb, 0x61, 0x9a, 0x3f, 0x3f,
  0x3b, 0x07, 0xd5, 0x3d, 0xd1, 0x04, 0x4b, 0xbe, 0x4d, 0xaf, 0x90, 0x3d,
  0x6c, 0x75, 0x4c, 0xbe, 0x53, 0x9d, 0x06, 0x3e, 0xfc, 0x28, 0x98, 0xbe,
  0x16, 0x91, 0x15, 0x3e, 0xad, 0x68, 0xd7, 0xbd, 0xe5, 0xe8, 0x48, 0xbc,
  0x09, 0xfa, 0xad, 0x3d, 0x7b, 0x04, 0x11, 0xbe, 0xfd, 0xd5, 0x98, 0x3d,
  0x27, 0xe5, 0x07, 0x40, 0xa1, 0x4a, 0xd8, 0x3d, 0xb5, 0xad, 0x40, 0xbd,
  0x20, 0x51, 0x0e, 0x3f, 0x44, 0x6a, 0x76, 0xbe, 0xe2, 0x45, 0xea, 0xbd,
  0xd0, 0x6e, 0x04, 0xbe, 0x4b, 0xc2, 0xca, 0xbd, 0x42, 0x32, 0x3d, 0x3d,
  0xfb, 0x63, 0xa5, 0xbe, 0x46, 0xe8, 0x43, 0xbc, 0x91, 0xa3, 0x40, 0xbe,
  0xc4, 0xd2, 0xdd, 0x3e, 0xf8, 0xb7, 0x43, 0xbd, 0x1b, 0xae, 0x0a, 0xbe,
  0x03, 0x9a, 0xb1, 0xbd, 0x6b, 0xab, 0xfc, 0x3f, 0x09, 0xbe, 0x1d, 0xbd,
  0xc9, 0xaf, 0x46, 0xbc, 0x2e, 0x07, 0xb3, 0x3e, 0xc6, 0x83, 0x54, 0xbe,
  0x78, 0x10, 0x26, 0xbe, 0x21, 0x7c, 0x8d, 0x3c, 0x92, 0x62, 0x78, 0xbe,
  0xd3, 0x51, 0x97, 0xbe, 0x77, 0xc9, 0x36, 0xbe, 0x5c, 0x35, 0x84, 0x3d,
  0xda, 0x98, 0xf4, 0xbc, 0xbe, 0xf9, 0x44, 0xbb, 0xd1, 0x2a, 0x22, 0xbe,
  0x4e, 0xaf, 0x49, 0xbd, 0x19, 0x90, 0xb3, 0xbc, 0xe0, 0x96, 0x87, 0x3f,
  0x29, 0x35, 0x92, 0xbd, 0x72, 0x1c, 0x2c, 0xbe, 0xe1, 0xd5, 0x8c, 0x3d,
  0x1b, 0x2e, 0x8d, 0xbd, 0x43, 0xd0, 0x1f, 0xbe, 0x48, 0x7e, 0x14, 0xbe,
  0x68, 0x6c, 0x8b, 0xbd, 0x6d, 0xd2, 0xe5, 0x3d, 0xce, 0x99, 0x97, 0xbe,
  0x45, 0x9c, 0x1e, 0xbe, 0xe3, 0x48, 0x91, 0xbd, 0x0d, 0x46, 0xfc, 0x3d,
  0x34, 0xdd, 0x00, 0x3e, 0x94, 0x5d, 0x91, 0xbe, 0x76, 0xbd, 0x98, 0x3d,
  0xf6, 0x27, 0xe7, 0x3f, 0x19, 0xae, 0x24, 0xbe, 0xb1, 0x8c, 0xc6, 0xbd,
  0xb1, 0xc2, 0x63, 0xba, 0x0b, 0xaa, 0x7c, 0xbe, 0x8e, 0xa7, 0xa2, 0x3b,
  0x9e, 0xec, 0x6d, 0xbe, 0x40, 0xa7, 0x02, 0x3e, 0xd7, 0xf7, 0xdc, 0xbd,
  0x40, 0x58, 0xb7, 0xbe, 0x61, 0xc9, 0x51, 0xbe, 0x03, 0x5e, 0x12, 0xbe,
  0x84, 0xca, 0xeb, 0xbd, 0x26, 0xb1, 0x36, 0xbe, 0x15, 0x2f, 0x4b, 0xbe,
  0x84, 0x82, 0x56, 0x3e, 0xfa, 0xea, 0xf1, 0x3f, 0x95, 0x8b, 0x81, 0xbe,
  0x11, 0x7e, 0xef, 0xbd, 0x4a, 0x8f, 0x72, 0x3f, 0x8f, 0x34, 0x15, 0xbd,
  0xac, 0x43, 0x92, 0xbe, 0x12, 0x0d, 0x23, 0xbe, 0x13, 0x52, 0x96, 0xbc,
  0x7e, 0xca, 0x36, 0xbe, 0x98, 0x73, 0x1e, 0xbe, 0x99, 0x3d, 0x03, 0xbe,
  0xaa, 0x00, 0x88, 0x3d, 0x53, 0x8a, 0x63, 0x3d, 0x46, 0xad, 0x07, 0x3d,
  0xe0, 0xd5, 0xd2, 0x3d, 0x54, 0x58, 0x06, 0xbe, 0x74, 0x99, 0xf6, 0x3f,
  0xa8, 0xb3, 0x90, 0x3d, 0xf8, 0x9a, 0xa9, 0xbe, 0xec, 0x32, 0xd9, 0x3e,
  0xa9, 0x72, 0x37, 0xbe, 0xc5, 0x7d, 0xd2, 0x3d, 0x2f, 0x75, 0xb1, 0xbc,
  0xa5, 0x25, 0x9b, 0xbc, 0x5f, 0xca, 0xbc, 0x3d, 0xb5, 0x00, 0xe6, 0xbe,
  0x95, 0x96, 0x32, 0x3d, 0xcb, 0xbe, 0x01, 0x3d, 0x8e, 0x5c, 0x35, 0x3e,
  0x17, 0x00, 0x2e, 0xbe, 0x65, 0x65, 0x19, 0xbe, 0x43, 0x57, 0x63, 0x3c,
  0x8c, 0xd4, 0xde, 0x3f, 0x5a, 0x7b, 0xea, 0xbd, 0x9f, 0xc7, 0xb3, 0xbd,
  0x50, 0xd2, 0x99, 0x3f, 0x77, 0x1e, 0x28, 0xbe, 0xd4, 0xa6, 0x64, 0xbe,
  0x8b, 0xb9, 0x11, 0x3e, 0x33, 0x8f, 0x85, 0x3d, 0x82, 0xd4, 0x41, 0xbe,
  0x7c, 0xaf, 0x83, 0xbe, 0xa0, 0x69, 0x78, 0xbd, 0xe3, 0x66, 0x43, 0xbd,
  0x82, 0x8b, 0xe1, 0x3d, 0xe3, 0xa5, 0x2a, 0x3d, 0x12, 0xdd, 0x3c, 0x3d,
  0x4b, 0x20, 0x3f, 0xbe, 0x7c, 0x6a, 0x04, 0x40, 0xf1, 0xcc, 0x5d, 0xbe,
  0x5e, 0xb8, 0xa5, 0x3c, 0x97, 0x4f, 0xdb, 0x3e, 0x41, 0xde, 0xa5, 0xba,
  0x9b, 0x54, 0x42, 0xbe, 0xf8, 0x04, 0xdb, 0xbd, 0x5b, 0xc4, 0x8a, 0x3d,
  0xaa, 0x97, 0x9d, 0x3d, 0x75, 0xff, 0xc9, 0xbe, 0x62, 0xe7, 0xd2, 0x3d,
  0xf3, 0x2e, 0x86, 0x3b, 0x5c, 0x7a, 0xab, 0x3e, 0xf9, 0x7d, 0x7e, 0x3d,
  0xd9, 0x61, 0x0a, 0xbe, 0x37, 0x30, 0xf1, 0x3d, 0xb2, 0xaf, 0xf8, 0x3f,
  0x34, 0xf5, 0x16, 0xbe, 0x23, 0x44, 0x5c, 0xbe, 0xf6, 0x21, 0x31, 0x3d,
  0x96, 0xd4, 0x41, 0xbe, 0xf6, 0x3e, 0x8d, 0xbe, 0xd8, 0x23, 0x97, 0xbc,
  0xb4, 0x1d, 0x88, 0xbe, 0x30, 0xfb, 0x10, 0xbe, 0x66, 0x6f, 0xf5, 0xbe,
  0x00, 0x71, 0xf5, 0x3d, 0x0a, 0x39, 0x5f, 0xbd, 0x68, 0x4b, 0x8e, 0xbd,
  0x40, 0xf2, 0x06, 0xbe, 0x50, 0xb6, 0xc8, 0xbd, 0x15, 0xac, 0x03, 0x3e,
  0xf7, 0xf4, 0x06, 0x3f, 0x1d, 0x44, 0x10, 0x3d, 0x9d, 0x95, 0x5d, 0xbe,
  0x04, 0x05, 0x3e, 0x3e, 0x66, 0x0c, 0x62, 0x3d, 0x9e, 0x24, 0x39, 0xbe,
  0x9e, 0x2a, 0x8e, 0x3e, 0xb9, 0xa8, 0xa7, 0x3d, 0x21, 0x87, 0x78, 0x3e,
  0xf9, 0x1a, 0x87, 0x3d, 0xc5, 0x1a, 0x16, 0x3c, 0x3f, 0x8b, 0x13, 0xbd,
  0xe6, 0x6b, 0x67, 0x3e, 0x1c, 0x24, 0xb4, 0xbe, 0x8f, 0xf1, 0xe3, 0xbe,
  0x7e, 0xd2, 0x11, 0xbe, 0xc0, 0xab, 0xc8, 0x3f, 0xb5, 0x98, 0x85, 0x3e,
  0xd4, 0x12, 0xe4, 0x3d, 0x39, 0x54, 0x65, 0xbe, 0x80, 0xdd, 0x13, 0xbe,
  0xf1, 0x13, 0x93, 0xbd, 0xd7, 0x75, 0x7f, 0x3e, 0x90, 0xc7, 0xe2, 0xbc,
  0xfa, 0xc3, 0xab, 0xbd, 0xff, 0xcd, 0x06, 0xbe, 0x89, 0xd0, 0x23, 0x3e,
  0x36, 0xcb, 0x18, 0x3e, 0xd2, 0xc3, 0x19, 0xbd, 0x1c, 0x6c, 0x70, 0xbe,
  0x4f, 0x47, 0x25, 0xbd, 0x7e, 0xc7, 0x36, 0xbe, 0xf0, 0x7a, 0xca, 0x3f,
  0x1c, 0x76, 0x47, 0x3e, 0x13, 0x30, 0x3a, 0xbe, 0xb8, 0x56, 0x4b, 0xbe,
  0x3d, 0x1a, 0xc0, 0x3d, 0x59, 0x00, 0xcf, 0xbd, 0xcd, 0xa7, 0xbc, 0x3e,
  0x2c, 0x0a, 0x13, 0x3c, 0x5b, 0x90, 0x79, 0xbe, 0xb4, 0x10, 0x81, 0xbd,
  0x2a, 0xb9, 0x50, 0x3e, 0x9d, 0x8b, 0xf7, 0x3d, 0x0d, 0xbd, 0x7c, 0xbe,
  0xf4, 0x5b, 0xdc, 0xbc, 0x83, 0x5c, 0xd3, 0xbd, 0xfe, 0xf7, 0x65, 0xbe,
  0xc6, 0x70, 0xd1, 0x3f, 0x03, 0xf6, 0xae, 0xbd, 0x0e, 0x47, 0xb5, 0x3d,
  0x54, 0xf2, 0xe7, 0xbd, 0xec, 0xa4, 0x58, 0x3e, 0x3f, 0xcc, 0x9a, 0xbe,
  0xce, 0x23, 0xaf, 0x3d, 0xce, 0xac, 0x63, 0xbe, 0x6e, 0x9c, 0xa5, 0xbd,
  0x71, 0x81, 0xe2, 0xbc, 0x0e, 0x29, 0x79, 0x3e, 0x7e, 0xe0, 0xb4, 0xbe,
  0xa7, 0x9c, 0x57, 0xbe, 0xa8, 0x91, 0x40, 0xbe, 0xef, 0x1e, 0x90, 0xbd,
  0x76, 0xba, 0xa1, 0xbe, 0x97, 0x83, 0xee, 0x3f, 0xed, 0xbc, 0xb6, 0xbb,
  0x35, 0xcd, 0x12, 0x3e, 0xe4, 0x9f, 0x15, 0xbe, 0x7a, 0x35, 0x57, 0x3e,
  0xa6, 0xd9, 0x06, 0xbf, 0xa9, 0x87, 0x23, 0xbf, 0x6e, 0x18, 0xf6, 0xbe,
  0x64, 0x88, 0xc8, 0xbc, 0x96, 0xfd, 0xec, 0xbb, 0xa4, 0xfc, 0x74, 0x3e,
  0x97, 0x67, 0x3c, 0xbe, 0x8f, 0x12, 0x24, 0xbc, 0xed, 0x7d, 0xca, 0xbe,
  0xd6, 0xff, 0x32, 0x3e, 0x8a, 0x06, 0x2e, 0xbe, 0xe3, 0xe5, 0xd5, 0x3f,
  0x7b, 0x54, 0x23, 0xbe, 0xbf, 0xcd, 0xa4, 0x3c, 0x34, 0xcd, 0x86, 0x3d,
  0x77, 0x72, 0x8c, 0x3e, 0x45, 0xce, 0x25, 0xbf, 0xfb, 0x08, 0xe7, 0xbe,
  0x59, 0xab, 0xb4, 0xbe, 0x1f, 0x92, 0x02, 0xbe, 0xdd, 0xea, 0x6e, 0xbd,
  0xf1, 0xf9, 0xb4, 0xbe, 0x15, 0xef, 0x19, 0xbe, 0x8d, 0xf9, 0x37, 0x3d,
  0x3c, 0x60, 0xc3, 0xbe, 0x4d, 0x34, 0x89, 0x3e, 0x72, 0xf4, 0xf8, 0x3c,
  0x66, 0x72, 0x03, 0x40, 0x3b, 0x25, 0x59, 0xbd, 0x7f, 0xba, 0x04, 0xbe,
  0x5e, 0xb2, 0x61, 0x3b, 0xd5, 0xe9, 0xe8, 0xbd, 0x8a, 0xc9, 0x07, 0xbe,
  0xe9, 0xc8, 0x90, 0xbe, 0x8e, 0xf9, 0x1f, 0x3d, 0x73, 0x51, 0x3b, 0x3d,
  0x86, 0x8e, 0xe7, 0xbc, 0x5c, 0x3a, 0xb9, 0xbe, 0xe1, 0x50, 0xd8, 0x3c,
  0xca, 0xdb, 0x23, 0x3e, 0x5e, 0x44, 0xec, 0xbd, 0x50, 0x08, 0x9a, 0x3d,
  0x8e, 0xb2, 0x50, 0xbd, 0xe3, 0x48, 0xb5, 0x3f, 0xab, 0x73, 0xc4, 0xbd,
  0x85, 0xe1, 0x61, 0xbe, 0x7f, 0xcd, 0x07, 0xbe, 0xf4, 0xe7, 0x16, 0xbf,
  0xf1, 0x35, 0x3e, 0xbf, 0xdf, 0xc9, 0x04, 0xbf, 0x50, 0x51, 0xf7, 0xbe,
  0x5c, 0x28, 0xbe, 0xbe, 0x89, 0x2b, 0x25, 0xbe, 0xc6, 0x4a, 0x06, 0xbf,
  0x91, 0x20, 0x89, 0xbe, 0xa1, 0x08, 0x04, 0xbe, 0x35, 0xa0, 0x9a, 0xbe,
  0x5c, 0xf3, 0x8f, 0xbd, 0xd5, 0x71, 0x2d, 0xbe, 0xaf, 0xb0, 0xd8, 0x3f,
  0x3d, 0x67, 0x45, 0xbf, 0xd0, 0x15, 0x96, 0xbe, 0x70, 0x4b, 0x83, 0x3c,
  0xc9, 0x07, 0xc5, 0xbe, 0x65, 0xde, 0x56, 0xbf, 0x96, 0x82, 0xac, 0xbe,
  0x47, 0xf9, 0xe9, 0xbe, 0xfd, 0xd9, 0xb9, 0xbd, 0x34, 0xb3, 0x8d, 0xbd,
  0x6c, 0xc8, 0x50, 0x3e, 0x0d, 0x6c, 0x21, 0xbd, 0xde, 0xbe, 0xa6, 0x3e,
  0x8b, 0x11, 0x43, 0xbe, 0x0d, 0xa6, 0x0f, 0x3e, 0x03, 0x4e, 0xe1, 0xbe,
  0x22, 0x1d, 0x20, 0x40, 0x61, 0x0f, 0x5d, 0xbf, 0xa3, 0x54, 0xf7, 0x3d,
  0x39, 0x1b, 0x8f, 0x3e, 0x1e, 0xe5, 0xd1, 0x3d, 0x2f, 0xd2, 0xcc, 0xbe,
  0xf3, 0x7a, 0xa4, 0xbe, 0x4f, 0x8f, 0xb6, 0xbd, 0xe1, 0x3d, 0x17, 0x3d,
  0xab, 0x82, 0x1a, 0xbc, 0x95, 0x6c, 0x1e, 0x3e, 0x74, 0x8d, 0x4a, 0xbd,
  0x8a, 0xba, 0xed, 0x3d, 0x4a, 0xb6, 0x91, 0xbd, 0xac, 0xf8, 0x1f, 0x3e,
  0xc6, 0xca, 0xd9, 0xbe, 0xf1, 0xd3, 0x27, 0x40, 0x73, 0x9a, 0x9d, 0x3e,
  0x8b, 0xeb, 0xb7, 0x3d, 0x23, 0xf2, 0x2f, 0xbc, 0xd1, 0x12, 0xd8, 0xbc,
  0x46, 0xcc, 0x46, 0xbe, 0xe5, 0x08, 0x49, 0x3e, 0xfd, 0x48, 0xf8, 0x3c,
  0x8c, 0xc9, 0x5c, 0x3d, 0x20, 0xc3, 0x07, 0xbb, 0xfb, 0x4c, 0x67, 0x3e,
  0x8c, 0xe3, 0xd0, 0xbb, 0x95, 0xb4, 0xd3, 0xbc, 0x2c, 0x94, 0x0e, 0x3e,
  0x21, 0x95, 0x83, 0x3d, 0x7b, 0xa9, 0x0d, 0xbf, 0x59, 0xb5, 0x06, 0x40,
  0xdb, 0xb7, 0x6f, 0x3e, 0x4d, 0xff, 0x2e, 0x3d, 0xd1, 0xdb, 0xab, 0x3d,
  0xe2, 0xf5, 0x2d, 0x3e, 0x56, 0xbc, 0x87, 0xbd, 0xde, 0x24, 0x9e, 0x3e,
  0xb1, 0x79, 0x88, 0x3d, 0x66, 0x6f, 0xb2, 0x3b, 0xed, 0xd7, 0x17, 0xbe,
  0x30, 0x26, 0xdc, 0xbc, 0xda, 0xd8, 0x76, 0xbe, 0xad, 0x0d, 0xce, 0x3e,
  0x28, 0x1f, 0x7a, 0xbe, 0x40, 0xf5, 0xd4, 0x3d, 0xac, 0x6b, 0x0c, 0xbf,
  0xb8, 0xf0, 0x16, 0x40, 0xbf, 0x93, 0xa0, 0x3e, 0xb3, 0x78, 0xb1, 0xbd,
  0x3e, 0xfc, 0xf0, 0xbc, 0x40, 0x90, 0xa7, 0x3d, 0x53, 0xa5, 0x49, 0xbe,
  0xf3, 0x2a, 0xb6, 0x3e, 0xb6, 0xd1, 0x21, 0xbc, 0x90, 0xe7, 0xf8, 0xbd,
  0x6f, 0x71, 0x18, 0xbd, 0xc7, 0xef, 0x81, 0x3d, 0x79, 0xe2, 0x92, 0xbd,
  0x9e, 0xa2, 0x8b, 0x3e, 0x39, 0xc7, 0xf6, 0xbd, 0xbe, 0x37, 0x32, 0xbf,
  0xe6, 0xd0, 0x10, 0xbf, 0xd5, 0x0e, 0xe8, 0x3f, 0xa5, 0x0e, 0xe5, 0x3d,
  0x9e, 0xe0, 0x1c, 0x3d, 0x64, 0x77, 0xc8, 0xbd, 0x3b, 0x4c, 0xc8, 0x3d,
  0xdb, 0xe6, 0xcc, 0xbe, 0xbf, 0xb6, 0xf6, 0x3e, 0x6e, 0x09, 0x89, 0x3c,
  0x7f, 0x5a, 0xaa, 0xbe, 0xd1, 0x4d, 0xab, 0x3c, 0x43, 0x08, 0x6e, 0x3e,
  0x23, 0x95, 0x65, 0xbe, 0xe7, 0x65, 0x35, 0xbe, 0xfc, 0x23, 0x1d, 0xbe,
  0x74, 0x57, 0xde, 0xbe, 0x2f, 0x89, 0x8f, 0xbd, 0x26, 0x50, 0xa3, 0x3f,
  0xb4, 0x8b, 0x32, 0x3d, 0x6a, 0x34, 0x47, 0x3e, 0x16, 0x7a, 0x51, 0xbe,
  0xce, 0x60, 0x92, 0x3c, 0xdb, 0xd0, 0x25, 0xbc, 0x75, 0x68, 0x72, 0xbc,
  0xb1, 0xb2, 0x13, 0xbc, 0x13, 0x12, 0x41, 0xbd, 0xaf, 0xfa, 0xb7, 0xbe,
  0xaf, 0x93, 0x1e, 0x3e, 0xcb, 0x86, 0xb9, 0xbd, 0x35, 0xe3, 0xe0, 0x3c,
  0x82, 0x54, 0x11, 0xbc, 0x1e, 0xa7, 0x4d, 0xbd, 0x31, 0x64, 0x54, 0x3e,
  0x31, 0x16, 0x49, 0xbe, 0x5b, 0x0c, 0x0e, 0xbe, 0x9a, 0x15, 0x1c, 0xbe,
  0x22, 0x9d, 0x23, 0xbe, 0xb9, 0x9e, 0x21, 0x3c, 0xdd, 0x25, 0x03, 0xbe,
  0x39, 0x1e, 0xac, 0x3a, 0x10, 0x67, 0x00, 0xbe, 0x03, 0xee, 0xa0, 0x3d,
  0x82, 0xe3, 0x33, 0xbd, 0x58, 0xe6, 0x03, 0x3d, 0x8d, 0x21, 0xda, 0xbd,
  0x71, 0x13, 0xc5, 0x3d, 0xb4, 0x60, 0x40, 0xbe, 0x3b, 0xc3, 0x58, 0xbd,
  0x2c, 0x60, 0x08, 0xbd, 0xa3, 0x83, 0x30, 0xbd, 0x16, 0x58, 0x07, 0xbe,
  0xd8, 0xc5, 0xc6, 0xbc, 0xbb, 0x20, 0x81, 0x3d, 0x29, 0xfc, 0x3a, 0x3d,
  0xee, 0xec, 0xd6, 0x3d, 0x97, 0xde, 0x8e, 0x3d, 0xed, 0x81, 0x8b, 0xbc,
  0xc5, 0x84, 0x29, 0xbe, 0xfa, 0x9d, 0x84, 0xbe, 0xd0, 0x30, 0x5e, 0x3e,
  0xcc, 0x55, 0x4e, 0xbe, 0xbc, 0xd1, 0x47, 0x3d, 0xbe, 0xc1, 0xbd, 0xbb,
  0x3c, 0x20, 0x89, 0x3e, 0xa2, 0x7c, 0xf3, 0xbd, 0x16, 0xa0, 0xba, 0xbd,
  0x7d, 0x89, 0x0d, 0x3e, 0x4f, 0x5d, 0x53, 0x3d, 0xee, 0x7c, 0x02, 0x3e,
  0x67, 0x9f, 0x7d, 0xbe, 0x0e, 0x2b, 0xf1, 0xbd, 0x09, 0x7b, 0x89, 0xbd,
  0xec, 0x55, 0x61, 0x3c, 0xc6, 0xf8, 0xe6, 0x3c, 0xad, 0x45, 0xf3, 0xbe,
  0x42, 0x1b, 0x45, 0xbe, 0xa9, 0x53, 0x5b, 0xbd, 0x6e, 0x87, 0x70, 0xbd,
  0xc1, 0xd6, 0x32, 0x3d, 0xdd, 0x56, 0x00, 0x3e, 0x92, 0x40, 0x9c, 0xbd,
  0xc8, 0x45, 0xd7, 0x3d, 0x6d, 0x76, 0x50, 0xbe, 0xad, 0x34, 0x1f, 0x3b,
  0x18, 0x66, 0x0c, 0x3e, 0xf0, 0xce, 0x54, 0xbd, 0xe2, 0x97, 0x91, 0xbc,
  0xc0, 0x8b, 0x64, 0x3d, 0x9f, 0x05, 0x0e, 0x3d, 0x00, 0x6f, 0x3c, 0xbe,
  0x89, 0xc9, 0xad, 0xbe, 0xa8, 0x1c, 0xe5, 0xbd, 0x55, 0x48, 0x1d, 0xbe,
  0x8f, 0x91, 0xc5, 0x3b, 0x6c, 0x6a, 0x25, 0xbc, 0xd8, 0xc8, 0xcd, 0x3d,
  0x88, 0x85, 0x4a, 0xbc, 0xfc, 0x21, 0xb3, 0x3a, 0x55, 0xe9, 0x7e, 0xbd,
  0x25, 0xa5, 0x4d, 0x3d, 0x5d, 0xd4, 0x22, 0xbe, 0xe9, 0x7f, 0x49, 0xbe,
  0xee, 0x37, 0x69, 0xbe, 0x96, 0x87, 0x0d, 0x3e, 0xfe, 0x18, 0x89, 0xbd,
  0xba, 0x63, 0x0a, 0x3d, 0xed, 0x06, 0x1a, 0xbe, 0x55, 0x35, 0x40, 0xbd,
  0x06, 0xf0, 0x08, 0x3b, 0xa8, 0x7b, 0x8b, 0x3e, 0x82, 0xc8, 0x6c, 0xbd,
  0x0a, 0x41, 0x71, 0x3e, 0x4e, 0x93, 0x92, 0x3e, 0xb1, 0xa9, 0x8b, 0xbd,
  0x9e, 0x43, 0x38, 0x3c, 0xb9, 0xec, 0x63, 0xbe, 0xbb, 0xb4, 0x84, 0x3e,
  0x41, 0x91, 0xaa, 0xbd, 0xb9, 0x6d, 0xf3, 0xbd, 0x5f, 0x2e, 0x95, 0xbc,
  0xb9, 0xa2, 0x94, 0xbe, 0x0a, 0xd1, 0xe0, 0x3c, 0xe6, 0x16, 0x93, 0xbe,
  0x39, 0xde, 0xf2, 0x3d, 0x08, 0xe4, 0x1a, 0xbe, 0x2d, 0xe8, 0x87, 0x3e,
  0x7a, 0x6d, 0x8a, 0xbc, 0x33, 0x33, 0x10, 0x3d, 0x10, 0xc6, 0xd4, 0x3d,
  0xd8, 0xbb, 0x67, 0x3d, 0xfc, 0x9d, 0xa0, 0xbc, 0x08, 0x6b, 0x1d, 0xbe,
  0xba, 0x0d, 0x90, 0x3d, 0xd6, 0xfd, 0xff, 0xff, 0x10, 0x00, 0x00, 0x00,
  0x07, 0x00, 0x00, 0x00, 0x14, 0x00, 0x00, 0x00, 0x2c, 0x00, 0x00, 0x00,
  0x02, 0x00, 0x00, 0x00, 0x10, 0x00, 0x00, 0x00, 0x70, 0x00, 0x00, 0x00,
  0x17, 0x00, 0x00, 0x00, 0x73, 0x65, 0x71, 0x75, 0x65, 0x6e, 0x74, 0x69,
  0x61, 0x6c, 0x2f, 0x64, 0x65, 0x6e, 0x73, 0x65, 0x2f, 0x4d, 0x61, 0x74,
  0x4d, 0x75, 0x6c, 0x00, 0x54, 0xfd, 0xff, 0xff, 0x3a, 0xfe, 0xff, 0xff,
  0x04, 0x00, 0x00, 0x00, 0x08, 0x00, 0x00, 0x00, 0xff, 0xff, 0xff, 0xff,
  0x70, 0x00, 0x00, 0x00, 0x00, 0x00, 0x0e, 0x00, 0x18, 0x00, 0x08, 0x00,
  0x07, 0x00, 0x0c, 0x00, 0x10, 0x00, 0x14, 0x00, 0x0e, 0x00, 0x00, 0x00,
  0x00, 0x00, 0x00, 0x02, 0x10, 0x00, 0x00, 0x00, 0x06, 0x00, 0x00, 0x00,
  0x10, 0x00, 0x00, 0x00, 0x2c, 0x00, 0x00, 0x00, 0x01, 0x00, 0x00, 0x00,
  0x02, 0x00, 0x00, 0x00, 0x18, 0x00, 0x00, 0x00, 0x73, 0x65, 0x71, 0x75,
  0x65, 0x6e, 0x74, 0x69, 0x61, 0x6c, 0x2f, 0x66, 0x6c, 0x61, 0x74, 0x74,
  0x65, 0x6e, 0x2f, 0x43, 0x6f, 0x6e, 0x73, 0x74, 0x00, 0x00, 0x00, 0x00,
  0xbc, 0xfd, 0xff, 0xff, 0xa2, 0xfe, 0xff, 0xff, 0x04, 0x00, 0x00, 0x00,
  0x20, 0x00, 0x00, 0x00, 0xcd, 0x51, 0x3e, 0xc0, 0x3c, 0xa4, 0x8d, 0xbf,
  0xca, 0x54, 0xdc, 0xbe, 0x92, 0x2c, 0x12, 0xc0, 0x6a, 0xcb, 0x13, 0xbf,
  0x27, 0xf4, 0xa6, 0xbf, 0x33, 0xa3, 0x40, 0xbf, 0x83, 0x85, 0xa2, 0xbf,
  0xaa, 0xfe, 0xff, 0xff, 0x10, 0x00, 0x00, 0x00, 0x05, 0x00, 0x00, 0x00,
  0x10, 0x00, 0x00, 0x00, 0x1c, 0x00, 0x00, 0x00, 0x01, 0x00, 0x00, 0x00,
  0x08, 0x00, 0x00, 0x00, 0x0b, 0x00, 0x00, 0x00, 0x63, 0x6f, 0x6e, 0x76,
  0x32, 0x64, 0x2f, 0x62, 0x69, 0x61, 0x73, 0x00, 0x18, 0xfe, 0xff, 0xff,
  0xfe, 0xfe, 0xff, 0xff, 0x04, 0x00, 0x00, 0x00, 0x40, 0x00, 0x00, 0x00,
  0x18, 0x1a, 0x21, 0xc0, 0x65, 0x30, 0xd7, 0xbe, 0x7e, 0x6d, 0x69, 0xbe,
  0xdb, 0xb9, 0x2e, 0xbf, 0xdf, 0x46, 0xd4, 0xbf, 0x5f, 0xa2, 0x4e, 0x3f,
  0xcd, 0xa5, 0x9a, 0xbf, 0xcb, 0x0e, 0x11, 0xbf, 0xd9, 0x9f, 0x9a, 0x3f,
  0xfa, 0x32, 0x9a, 0xbf, 0xc1, 0x06, 0xbe, 0x3e, 0x91, 0x84, 0x30, 0x3f,
  0xfa, 0x63, 0x10, 0x40, 0xaf, 0x14, 0xd3, 0xbf, 0x1b, 0xd6, 0x32, 0xbe,
  0xa2, 0xe4, 0x29, 0xbf, 0x26, 0xff, 0xff, 0xff, 0x10, 0x00, 0x00, 0x00,
  0x04, 0x00, 0x00, 0x00, 0x10, 0x00, 0x00, 0x00, 0x20, 0x00, 0x00, 0x00,
  0x01, 0x00, 0x00, 0x00, 0x10, 0x00, 0x00, 0x00, 0x0d, 0x00, 0x00, 0x00,
  0x63, 0x6f, 0x6e, 0x76, 0x32, 0x64, 0x5f, 0x31, 0x2f, 0x62, 0x69, 0x61,
  0x73, 0x00, 0x00, 0x00, 0x98, 0xfe, 0xff, 0xff, 0x7e, 0xff, 0xff, 0xff,
  0x04, 0x00, 0x00, 0x00, 0x40, 0x00, 0x00, 0x00, 0x13, 0x7e, 0x4d, 0x40,
  0x60, 0x16, 0xac, 0xbf, 0xed, 0x0f, 0xcd, 0xbd, 0xdf, 0xed, 0x1f, 0xbe,
  0xdd, 0x8f, 0xe5, 0xbd, 0x96, 0x8c, 0x14, 0xbf, 0xca, 0xe1, 0x21, 0xbf,
  0x51, 0x1b, 0x87, 0xbe, 0x52, 0x3e, 0x0b, 0x40, 0xde, 0x21, 0xb6, 0x3e,
  0xe5, 0xb0, 0x60, 0xbf, 0xb1, 0xdd, 0xce, 0x3e, 0x39, 0x12, 0xae, 0x3c,
  0x7e, 0x89, 0x2d, 0xbf, 0x8f, 0xf2, 0xe7, 0xbe, 0x5d, 0x49, 0x8e, 0xbe,
  0xa6, 0xff, 0xff, 0xff, 0x10, 0x00, 0x00, 0x00, 0x03, 0x00, 0x00, 0x00,
  0x10, 0x00, 0x00, 0x00, 0x20, 0x00, 0x00, 0x00, 0x01, 0x00, 0x00, 0x00,
  0x10, 0x00, 0x00, 0x00, 0x0a, 0x00, 0x00, 0x00, 0x64, 0x65, 0x6e, 0x73,
  0x65, 0x2f, 0x62, 0x69, 0x61, 0x73, 0x00, 0x00, 0x04, 0x00, 0x06, 0x00,
  0x04, 0x00, 0x00, 0x00, 0x00, 0x00, 0x06, 0x00, 0x08, 0x00, 0x04, 0x00,
  0x06, 0x00, 0x00, 0x00, 0x04, 0x00, 0x00, 0x00, 0x10, 0x00, 0x00, 0x00,
  0xee, 0xae, 0xfb, 0xbf, 0x85, 0xcf, 0x81, 0xc0, 0x54, 0xc0, 0x94, 0x3d,
  0x8c, 0xb5, 0x29, 0x40, 0x00, 0x00, 0x0e, 0x00, 0x14, 0x00, 0x04, 0x00,
  0x00, 0x00, 0x08, 0x00, 0x0c, 0x00, 0x10, 0x00, 0x0e, 0x00, 0x00, 0x00,
  0x10, 0x00, 0x00, 0x00, 0x02, 0x00, 0x00, 0x00, 0x10, 0x00, 0x00, 0x00,
  0x20, 0x00, 0x00, 0x00, 0x01, 0x00, 0x00, 0x00, 0x04, 0x00, 0x00, 0x00,
  0x0c, 0x00, 0x00, 0x00, 0x64, 0x65, 0x6e, 0x73, 0x65, 0x5f, 0x31, 0x2f,
  0x62, 0x69, 0x61, 0x73, 0x00, 0x00, 0x00, 0x00, 0x80, 0xff, 0xff, 0xff,
  0x14, 0x00, 0x18, 0x00, 0x04, 0x00, 0x00, 0x00, 0x08, 0x00, 0x0c, 0x00,
  0x10, 0x00, 0x00, 0x00, 0x00, 0x00, 0x14, 0x00, 0x14, 0x00, 0x00, 0x00,
  0x14, 0x00, 0x00, 0x00, 0x01, 0x00, 0x00, 0x00, 0x20, 0x00, 0x00, 0x00,
  0x54, 0x00, 0x00, 0x00, 0x3c, 0x00, 0x00, 0x00, 0x04, 0x00, 0x00, 0x00,
  0x01, 0x00, 0x00, 0x00, 0x40, 0x00, 0x00, 0x00, 0x03, 0x00, 0x00, 0x00,
  0x01, 0x00, 0x00, 0x00, 0x1e, 0x00, 0x00, 0x00, 0x73, 0x65, 0x72, 0x76,
  0x69, 0x6e, 0x67, 0x5f, 0x64, 0x65, 0x66, 0x61, 0x75, 0x6c, 0x74, 0x5f,
  0x63, 0x6f, 0x6e, 0x76, 0x32, 0x64, 0x5f, 0x69, 0x6e, 0x70, 0x75, 0x74,
  0x3a, 0x30, 0x00, 0x00, 0x04, 0x00, 0x00, 0x00, 0xff, 0xff, 0xff, 0xff,
  0x40, 0x00, 0x00, 0x00, 0x03, 0x00, 0x00, 0x00, 0x01, 0x00, 0x00, 0x00,
  0xfc, 0xff, 0xff, 0xff, 0x04, 0x00, 0x04, 0x00, 0x04, 0x00, 0x00, 0x00
};

unsigned int model_tflite_len = 13056;// Fill the int in `src/model.cc` here
